F6
FD
FD
FD
03
01
FE
03
01
01
FA
FE
02
FC
FA
FE
FD
FF
FE
FB
FE
01
01
FB
FD
03
FB
FA
FB
FE
04
00
02
01
FE
FD
FA
FC
FF
FE
F8
FC
FC
03
FF
00
FE
FD
F9
FD
FB
01
F6
00
01
01
02
FD
FE
FF
FC
F9
FB
02
FF
FD
FA
FE
FD
00
FC
FD
FC
FB
FB
FB
FD
02
F8
02
04
FD
00
00
00
FD
F7
FC
FB
FD
FA
00
FD
FB
FD
FD
FB
F9
FD
F9
FB
FB
FA
F7
FC
FC
FF
F6
FC
FC
FA
FA
FB
F9
FF
00
00
04
FF
FF
F9
FA
FC
FA
FC
FB
F8
FD
FD
FC
00
FC
FA
FC
F7
FC
FE
FD
FB
FA
F9
FA
F8
06
FD
FD
FB
FC
F8
FE
FB
F7
F9
FD
FD
FA
02
FD
06
FD
FD
FA
01
FC
FD
F8
FF
FD
00
F6
FF
FD
03
07
02
01
02
02
00
07
FB
03
04
FA
02
FA
07
03
02
FF
04
07
01
FE
FF
04
00
08
FD
07
FF
FD
01
FE
04
00
00
07
00
FC
FE
FA
FD
FE
FB
FD
02
FF
FE
FC
FC
FD
FC
02
FF
03
FF
FF
00
02
00
00
FE
FE
F6
00
00
FE
FE
FD
FF
FF
01
FF
FB
FC
F9
F9
FF
02
FB
FF
FC
FD
FB
F9
F8
FC
00
FB
04
FA
FF
FD
FF
FF
FD
F9
FE
F9
FF
F9
00
00
01
05
FB
FF
FC
FE
FD
FA
F5
F9
FB
FF
01
03
FE
02
FC
FF
FA
FC
FD
F2
F9
FE
F6
05
F9
03
00
FD
FE
FB
FD
FE
FB
F5
F9
F7
FE
FD
01
02
FF
FE
03
FA
FD
FA
F7
F5
FA
FB
FB
02
01
04
FF
00
03
FC
FD
F8
F7
F9
14
14
06
0A
06
09
0A
09
11
0E
0B
13
26
13
0C
07
06
09
09
09
0F
0B
0E
0A
0B
26
09
08
05
09
0F
0D
0A
0E
0E
12
0B
14
1A
04
06
08
0A
08
07
0B
0B
10
10
0D
13
2A
05
08
06
07
07
0B
06
0A
13
10
13
1D
29
0A
0A
06
03
09
08
04
08
0C
11
1D
20
30
08
03
08
07
08
00
08
0A
0F
1A
1F
20
23
07
07
09
06
08
02
05
07
0F
16
1C
20
22
02
08
0B
0B
08
09
0D
0B
09
0A
19
28
19
00
08
05
08
06
0A
09
09
07
1D
0A
29
19
01
04
08
06
06
0D
0A
0C
02
0B
13
11
2A
05
07
0B
09
07
09
0B
0F
06
0A
14
19
32
03
03
08
03
0D
12
0A
0A
0A
11
27
34
35
FE
F9
FA
FE
FA
F9
FE
FA
FB
FD
FC
00
01
FC
FE
FC
FA
F9
FA
F8
FB
00
FB
00
01
FF
00
FD
FB
FA
FC
FE
FB
FE
FD
FF
00
00
FC
F7
04
FA
FD
FB
01
FF
FA
01
00
01
FE
FE
01
00
F9
FF
FD
FF
FD
FD
FB
03
00
FD
F8
06
FF
FB
FA
FB
FB
FD
FF
FC
02
03
FC
FA
01
09
FE
FA
FC
FB
FF
01
02
01
03
FE
FD
06
07
07
FD
FC
FE
FC
04
05
05
FE
07
08
05
00
04
FE
FF
00
FE
FF
03
05
05
04
04
02
05
00
00
01
00
05
03
04
04
05
05
FD
06
02
08
03
06
02
02
04
0A
05
09
0A
06
07
01
03
03
06
04
04
00
00
08
06
09
0F
00
03
07
FF
00
02
FF
FD
FC
FD
04
07
0E
05
FC
06
07
FF
F8
FF
F9
FA
01
01
FE
FD
FC
F6
FE
FA
FD
FC
F6
00
FC
FD
FE
F8
FE
FD
02
05
02
F6
F8
FB
F6
F8
FB
F7
FC
00
06
FC
FB
02
FC
F5
F9
F4
F9
FC
FC
FD
F5
FC
04
FE
F9
F7
FB
F3
F5
FC
F6
FA
F9
FA
FD
04
02
FB
F6
F5
F2
F6
FA
FA
FC
F6
FA
FC
06
FA
FF
FE
F9
F3
F7
FD
FB
00
01
06
FD
05
01
06
FE
FC
F8
FB
02
01
04
FD
02
08
08
04
01
02
FD
FA
F6
01
00
08
01
01
02
07
02
07
03
FE
FA
F8
FF
05
02
06
01
04
02
08
00
01
00
FE
00
02
00
03
03
08
08
01
02
06
04
00
FE
00
01
FB
FD
05
0F
03
03
06
03
04
05
02
F8
03
01
04
FA
03
F8
FD
FE
FD
03
04
04
02
09
07
0D
08
01
00
FB
FB
01
03
06
02
0A
08
0A
0A
08
07
01
FE
FA
00
04
05
01
08
04
08
0E
08
06
FE
00
00
01
04
03
08
05
04
06
0B
09
03
F6
00
00
FF
04
04
06
05
08
04
0D
04
04
FD
04
02
03
06
05
03
06
02
06
07
05
FC
0A
00
03
08
06
04
05
05
02
03
00
04
06
09
0A
05
08
05
05
05
02
FE
04
03
04
FD
05
07
0B
07
07
06
05
00
FF
FA
04
FD
03
05
09
0D
04
07
00
00
FD
FE
00
07
FE
02
0B
09
0B
05
04
FD
FE
F4
F8
00
00
05
06
03
07
0A
0A
FE
02
00
FF
FF
00
04
01
F8
00
07
08
05
03
FF
FF
01
04
01
00
FA
FF
04
F1
02
FA
FB
F2
FA
F5
F7
FB
FD
F7
FB
F6
FB
FE
FE
F6
F1
F9
F4
F5
FA
FC
F8
04
FA
FB
FB
F6
F7
F9
F6
F5
F5
F9
FE
00
04
F7
FA
04
00
F7
FB
F8
F9
F9
F8
FC
01
FE
02
03
FF
02
FC
FF
FD
F9
F9
FB
F8
00
01
F4
02
00
FE
FD
FD
FB
F9
F6
FD
FF
01
FC
FD
01
FE
FB
FD
F8
FE
FB
FB
01
FE
01
00
FB
07
FD
FB
F8
F8
FB
F9
FB
FC
02
05
FC
06
02
FD
FA
01
FB
FC
FD
FD
01
FF
FE
00
03
FE
FD
F9
FB
FD
FE
FF
00
FB
00
05
FC
08
FC
00
FC
FC
FA
FD
00
FF
FF
03
01
00
02
FD
01
FA
01
FE
00
FD
FF
F9
01
01
FB
04
03
07
01
00
01
01
FF
FD
02
FF
00
F6
FF
F7
FD
FE
FC
FD
FD
FA
FA
FB
FA
FB
FE
FC
FF
01
FE
FC
FB
FA
FD
FB
FB
F9
FE
FD
02
FE
01
FB
FD
FA
FB
FC
FB
FB
FA
FE
FD
FE
FF
FF
FA
F7
FC
FA
FA
FC
FD
FA
FB
FF
03
FD
01
FA
F9
FA
FA
F8
FC
FE
F9
F8
FB
F6
05
FE
FC
F8
FD
FF
FB
FD
FA
F5
F9
FB
00
FF
FF
F9
FB
FB
FB
FD
FC
FC
F9
F5
FE
01
FE
02
F8
FF
FB
FD
FB
FF
FF
F9
FC
07
03
FC
00
FA
F8
FC
00
FA
FD
FE
FB
02
F9
03
FD
FB
F7
F9
FA
FE
FF
FF
FD
FD
FE
01
01
FD
FB
F8
FC
FA
FC
FC
FD
02
01
04
FE
01
FB
FF
F6
F5
FC
FD
FD
03
02
04
07
00
00
F8
F8
FC
F6
F6
F9
FB
FD
00
05
05
05
02
FB
01
FE
00
F7
FD
FD
03
FE
02
00
04
F9
03
01
03
FF
FD
00
FD
02
04
00
06
01
F9
03
0D
FE
01
FD
00
FF
05
05
08
04
04
00
09
09
07
FB
FD
FA
FD
01
07
08
07
07
FD
FF
00
00
FC
F7
FD
FF
01
04
0A
04
07
FA
FF
FB
FF
FB
02
02
00
05
02
0A
09
07
00
01
FF
04
01
09
02
06
05
06
05
09
02
01
FD
01
0C
0F
0C
09
07
06
06
05
07
FF
FA
00
06
06
09
0A
08
07
08
07
FF
FD
FE
02
FD
02
09
0C
0B
06
09
09
04
03
07
02
F7
07
04
09
0C
05
06
03
04
01
FF
05
02
FC
FB
03
05
04
05
03
04
03
FE
FA
FB
FA
FF
07
00
01
04
01
03
01
01
00
F9
00
FA
F2
FA
FE
03
05
01
04
09
03
02
07
07
01
FA
00
F7
01
05
09
03
09
09
08
08
06
F9
F7
FB
FB
06
02
04
03
04
06
02
04
01
FC
FA
F9
FE
FF
FC
00
05
07
08
08
02
FF
FB
F6
FD
04
FE
01
03
08
07
07
0C
09
04
FB
F4
03
FA
02
02
01
04
0B
0B
0D
07
03
F6
02
F9
02
FB
04
06
05
05
03
03
01
FD
EE
F7
F6
FD
01
04
01
08
07
05
FF
FF
F2
F1
00
FF
02
01
06
05
03
04
05
F6
FD
F4
F3
01
FE
00
05
04
07
06
0C
03
FF
F7
F8
EF
F7
FC
00
01
08
04
05
04
FE
F9
F4
F6
F6
FA
06
04
05
04
07
08
05
01
F7
F4
F6
F7
FF
04
03
08
04
09
02
03
09
FE
F9
F9
FB
1C
0D
03
FF
04
08
01
06
05
02
07
04
02
0A
04
02
04
04
0B
01
03
03
05
FE
FC
01
05
03
07
01
01
04
01
00
03
01
00
01
FD
09
06
FF
02
02
04
01
00
FD
00
02
FE
00
FF
03
04
00
01
02
FE
00
FF
FE
FE
FC
FE
02
07
FA
F9
04
02
00
FE
00
00
FA
00
FF
03
F5
EF
F5
00
00
FA
FE
FE
02
FF
F9
00
02
F9
F6
F9
00
FD
FB
FD
00
FD
00
05
FB
FD
FC
FC
FC
FB
FC
FF
FF
FE
FE
FD
FA
FA
02
FC
01
FE
04
05
FF
01
FF
FE
00
F9
00
FE
FB
05
04
04
02
04
01
FE
FF
00
00
00
FF
04
02
04
05
07
06
03
03
03
04
01
FA
04
0B
02
06
04
08
08
0D
0A
05
07
06
02
F3
F6
01
FE
FE
F7
F9
F4
F3
F2
F9
E7
F4
02
FE
09
03
09
FE
FC
FE
F7
E7
ED
EE
F2
02
04
0B
09
03
05
FC
FC
FA
F0
E7
EF
F0
01
06
08
09
05
00
05
03
FE
F7
F1
EE
F7
F5
05
05
02
02
04
02
06
00
F2
F4
F3
F4
03
00
FE
01
02
03
02
0D
04
FF
F5
F5
EC
02
FB
01
09
05
05
07
0E
0E
FD
03
EF
F3
FC
FE
FE
03
08
03
07
13
0F
0D
FB
F9
F0
FA
FC
FF
06
09
07
04
0D
0B
11
07
F9
F4
01
F9
06
00
04
02
00
05
02
0A
F9
FD
F6
01
01
02
03
04
01
00
00
0A
0E
00
04
F9
FA
FF
FF
04
02
00
01
04
08
0C
05
00
F3
F5
01
F9
FC
FD
00
01
02
09
09
FD
FC
F3
1B
07
06
FF
02
FB
FE
F8
F7
03
0E
20
33
02
04
00
00
00
FF
FF
FA
F4
F3
FE
02
11
0D
03
05
01
FF
05
04
FB
FB
FE
FD
FF
0A
01
06
0A
02
00
04
01
FD
00
FB
FE
02
06
09
02
0A
02
02
FF
02
FD
FF
F7
F3
00
06
04
04
00
01
01
FF
FB
FA
FB
FB
F9
F4
00
01
08
02
FF
FE
01
FC
FC
FF
FF
FA
FA
FB
F8
FB
FF
05
FE
01
FA
FE
00
FF
01
03
0E
FE
03
02
06
01
FC
FC
FA
04
02
07
10
15
FB
02
FE
03
06
02
00
00
04
0A
0A
0F
0D
FE
00
02
03
04
02
04
02
01
12
0D
0E
12
00
F9
01
00
05
FD
03
01
03
0E
11
0E
1B
FC
FC
FD
03
01
03
02
03
04
0A
0B
0A
10
4B
43
52
49
4D
51
48
53
4D
4A
42
47
49
4B
49
52
55
57
58
5B
51
46
4A
50
3F
41
4D
4D
46
57
50
69
6E
63
63
4D
4E
4B
45
46
4C
4A
57
65
72
70
6E
59
53
4E
48
49
49
4E
4C
51
69
6E
78
7E
6B
4C
4F
4F
41
4C
4E
47
58
66
71
7F
75
76
58
52
55
4F
52
4F
46
5B
67
6E
76
7E
65
5A
4D
53
42
4B
4E
4E
5D
67
72
79
73
5B
49
46
42
4E
50
44
49
5E
5F
79
7F
6A
51
4F
48
4D
49
4D
46
51
5A
68
69
73
55
4C
48
40
48
49
4A
4B
55
50
61
6E
68
59
5B
46
4B
4D
49
4C
43
46
4D
50
5D
5B
54
59
47
4B
4E
4F
45
42
48
54
51
59
4C
4B
50
4D
45
4E
45
F7
FA
02
00
FD
05
07
02
03
02
01
01
02
FE
F8
F9
02
01
05
02
00
02
00
02
04
FF
FF
FF
FB
FE
FF
FE
FE
FC
FE
F9
FE
FC
F8
FD
FE
01
FB
FC
FD
FA
F9
FF
FA
F8
00
F9
06
FA
F9
00
02
FE
FC
FA
FA
F6
FE
FC
FA
00
01
FF
FF
FB
FC
FD
FE
FB
F6
FD
FD
05
02
00
FF
FD
F8
FB
FE
FC
F8
F7
F9
02
FB
FF
FC
FE
FC
F7
F9
F7
FA
FE
F5
FB
04
F9
04
F7
FB
FC
FA
F9
FC
FB
F9
FE
FF
FA
01
FC
02
FC
FA
F9
FC
FC
F7
FC
F5
F7
F4
F2
00
00
00
FF
FE
FA
F8
FC
FA
F6
F8
F9
F9
03
06
FE
FE
FD
FD
FF
FE
FC
F2
ED
F8
F5
02
01
06
03
01
01
FF
FC
FE
F8
F5
FB
FD
F5
FD
04
03
04
00
FC
FE
01
FF
01
04
00
03
FC
08
05
09
03
FE
03
09
01
06
01
01
04
FC
09
0A
0B
08
04
05
05
02
05
07
06
05
04
07
0D
09
FE
03
01
01
05
05
05
04
03
03
07
06
06
FC
00
FD
FC
FF
03
04
09
07
FD
FE
FC
FE
F7
F3
FB
FD
FC
05
F8
03
07
01
FF
00
FB
F9
F6
FA
00
05
08
03
05
F7
FD
FD
06
0A
01
01
01
08
02
02
01
07
FB
FE
FC
02
09
05
03
00
01
01
05
07
01
F4
FD
00
00
05
01
FC
08
05
0A
06
03
FE
FA
F7
FA
05
06
02
03
01
0B
0C
06
03
09
F5
01
FE
FF
02
05
05
00
0E
0C
04
00
FE
FC
FB
F9
03
05
04
00
09
07
06
09
F7
FF
