FE
01
06
FF
01
05
07
0A
06
02
02
00
FE
FE
09
08
04
04
FE
02
FD
00
FF
00
FD
00
FD
02
07
02
02
FC
01
FF
FC
FE
FB
FA
FB
01
01
09
05
03
FB
FF
FD
FA
F6
F8
F8
F5
03
02
04
01
00
FE
FF
FE
FD
FC
F7
F9
F7
FC
FF
01
FC
FE
FC
FF
FD
FC
FB
F6
FB
F3
04
01
FE
00
01
FF
FF
FC
F6
FE
F4
F5
F3
00
01
FC
00
FF
FE
FE
FE
FC
FF
FA
F8
F3
FA
FF
FC
FE
00
00
FB
FB
FF
FE
03
FD
FA
FD
03
FB
FF
FE
FD
FD
FD
00
01
FF
FD
FF
F9
F9
F8
FD
FE
FC
FF
FE
FF
00
FF
01
FC
FF
F9
FC
FC
FC
FC
00
FE
FE
FD
00
01
05
F8
FB
FE
00
FF
01
01
FE
02
00
05
03
02
02
FE
09
02
08
FF
03
03
04
02
04
F9
FE
06
08
01
03
0A
03
02
FD
00
FB
F8
FC
F9
09
FE
07
01
02
02
04
01
F9
FC
F5
F5
FE
04
00
FF
02
01
00
FE
FF
FE
F8
F3
F7
F8
FF
FF
03
FF
02
00
00
F9
F7
F8
F1
F7
FF
FD
04
FE
FD
FF
00
FC
FC
F7
F3
FA
FB
FB
01
FF
01
FC
00
FF
FB
FA
FA
FB
FD
F8
FA
02
FD
FB
FC
FC
FA
FD
F7
FB
FC
FB
FC
02
F8
00
FF
F9
FD
00
F9
FF
FA
FD
00
FC
00
FF
FD
FD
FE
FC
FC
FA
FB
FC
F9
FE
00
05
04
FB
FB
FF
FB
FC
F9
FB
FC
FF
FF
00
00
04
FF
FB
03
FF
FA
FB
FA
FD
FD
00
00
06
F9
FB
FC
01
FE
FD
FC
FA
01
F8
05
05
FB
01
06
FF
04
09
06
0A
03
FE
03
FA
FC
04
FD
08
02
01
05
00
03
03
01
04
FB
F7
F1
06
01
02
FD
00
04
FA
F9
F7
FB
FB
F9
F2
02
08
FF
FE
FD
FE
FA
F8
F9
F7
F7
F5
F0
FE
06
03
03
FE
F9
F8
FB
F9
F7
F3
F0
F1
02
00
03
FB
04
FE
FB
F5
F4
F9
FD
F3
F7
03
06
05
05
05
FC
02
F8
FB
09
00
FF
F5
00
05
01
04
05
FE
FC
FB
FC
05
00
03
FD
FD
03
04
05
04
06
03
04
06
06
06
0E
FE
00
02
01
0A
08
07
01
FF
06
02
01
00
05
07
02
08
04
0A
0B
09
09
03
06
FE
FE
0B
04
05
02
04
06
08
0B
0B
02
FF
F8
03
00
06
01
FF
07
09
08
05
01
01
00
03
0D
09
FE
02
FE
00
05
05
0A
02
06
01
03
05
05
FD
FC
FF
00
02
02
01
03
07
03
07
03
06
F8
FB
FA
00
00
02
01
02
04
03
09
08
05
FC
FC
FC
FC
FE
01
03
01
05
06
05
05
0D
FD
F9
FD
FE
FF
01
00
00
FF
03
04
08
05
F5
00
FB
FE
FE
FC
02
02
02
04
08
08
0A
FE
FC
01
00
00
FF
02
03
01
04
04
09
0A
00
00
02
02
01
02
FF
02
05
03
02
06
06
01
03
03
01
02
02
03
03
04
05
FF
05
06
FF
04
04
02
00
02
05
05
04
06
03
FD
FE
FF
03
03
03
05
04
07
04
05
03
00
FF
01
FD
05
02
03
04
05
08
04
04
02
FE
02
00
03
03
03
06
05
06
06
06
02
01
02
FD
01
04
06
FE
FD
0A
04
09
03
03
04
06
01
02
FE
FF
03
05
03
07
05
09
05
0A
04
03
0C
FD
02
FD
02
01
06
07
0A
0A
08
07
07
09
F8
00
01
FE
06
0A
0A
08
0B
0C
06
0A
0A
FB
F8
00
FE
02
04
03
05
05
07
07
07
0B
F7
00
FD
FF
03
FF
05
07
02
06
0B
07
06
02
04
FE
03
01
02
FE
02
05
02
04
04
00
01
FD
01
06
02
00
04
FC
FE
FE
01
FB
FB
FE
06
02
01
01
03
FC
FA
FB
F8
F5
F6
F8
FB
00
FD
FE
FF
01
03
FA
FD
FB
F8
F5
F6
FC
FB
04
FF
FD
03
FF
01
03
F7
FC
EF
F7
FF
00
00
FD
FE
01
FE
FD
01
00
FB
FF
ED
FB
FE
FF
03
00
00
04
FE
00
FE
FC
FD
00
03
F9
00
FB
FD
F9
FA
FA
01
06
05
0A
05
06
FA
FB
FD
FE
FB
FB
00
05
08
08
07
08
02
FA
FB
F9
FC
FD
F8
00
02
09
0F
13
0B
00
FA
FB
FC
FA
FB
FF
FC
03
04
08
0B
0B
F8
F9
F8
F9
FB
FA
FE
FF
04
06
06
06
05
F9
F8
F7
FC
FA
F7
F7
FF
FC
FB
F9
FC
01
FA
F4
FC
FF
FC
FA
FE
FC
FD
F8
F7
FB
FB
F5
F8
FC
FC
FC
FF
FE
01
FD
FA
FB
F8
FB
FC
FC
FC
FD
02
02
05
03
01
02
FD
01
F5
FB
FF
FF
FE
03
00
02
01
FE
04
FF
FD
FE
FD
00
00
01
01
01
01
00
FD
02
FF
01
FE
FD
FC
01
03
01
03
05
04
02
01
07
04
00
FB
F8
FD
FC
05
01
04
03
04
01
08
05
04
FD
01
03
06
01
04
05
08
08
0F
09
0A
09
F7
FB
FB
01
01
04
04
04
06
07
09
08
0F
F8
FA
FD
00
FF
07
06
09
0B
04
0E
0A
0C
F4
F9
04
02
00
03
FE
06
0C
05
04
08
07
FB
FB
05
FF
FF
08
05
06
09
07
04
05
07
FB
FB
01
03
FE
07
03
06
05
09
09
02
05
FB
F9
FE
03
00
01
04
05
06
05
01
03
FD
00
FB
FE
00
01
FF
FF
01
03
FC
FD
FA
F1
01
FD
FF
FD
03
FE
01
00
01
FD
FA
FB
F3
FD
FC
00
01
00
00
FD
FE
FE
FC
F9
F6
F4
FE
F8
FC
00
FE
FE
FD
00
FC
01
FE
F9
F6
FB
FB
FA
FC
01
01
FE
FF
FA
00
FC
FC
FE
F5
FD
00
01
FE
01
05
02
FC
04
FB
FF
02
05
01
FE
02
FE
02
01
FF
FE
FF
FD
FC
FB
00
FF
FD
01
01
01
FE
04
02
00
00
FD
04
FF
FE
05
00
04
02
01
03
03
02
01
FF
01
01
01
00
00
01
02
02
02
02
04
05
01
01
04
FF
00
04
02
03
02
01
08
06
03
01
00
00
01
FD
02
00
05
05
02
05
04
04
02
01
FE
02
02
02
02
03
04
06
05
03
04
05
04
00
03
01
00
03
04
03
05
09
07
05
04
08
01
00
07
04
03
04
07
04
04
07
04
08
08
02
04
07
01
04
04
04
02
04
FF
FF
03
FF
05
02
06
00
04
03
01
00
00
00
00
FE
05
02
09
08
05
02
01
02
03
03
01
FC
01
FA
00
06
03
07
04
02
01
02
01
FE
FA
FB
FE
F5
01
F8
FB
FD
00
03
02
07
01
06
04
02
F8
FC
F7
FB
FA
01
06
07
08
04
04
0A
06
F4
FB
F5
FC
FB
03
05
03
05
05
04
03
06
F8
F4
F2
FA
FA
FE
FC
00
01
01
07
08
04
F8
F9
F9
FC
FF
FF
FE
FC
FD
FB
00
FD
02
FC
FC
04
05
03
00
03
FE
00
FB
00
FE
01
03
07
03
06
02
02
FF
00
FC
FB
FC
FB
FD
07
06
07
03
03
00
FF
FE
F9
FC
F5
F5
FB
01
08
06
03
03
02
02
00
FE
FC
FC
F9
FD
0B
05
01
05
05
05
02
04
01
01
FF
03
FF
08
04
02
01
05
FF
04
00
00
FD
FF
02
F9
07
09
04
06
04
03
FF
FE
01
FF
04
04
02
FC
00
03
04
04
02
FF
FE
FD
01
04
07
FD
00
00
03
07
FE
00
01
06
FE
FF
FD
F3
FF
08
03
00
03
03
06
FE
06
04
FD
07
FB
FA
FE
02
FF
0A
06
02
05
05
FE
01
FA
F8
F7
FC
FF
03
04
02
03
06
07
02
FE
03
02
F7
FD
03
02
03
01
02
01
FD
01
05
05
FE
FB
04
04
02
03
00
FA
00
04
02
FE
02
FB
E9
01
FE
FD
FC
01
FF
FB
FF
01
FF
00
FB
F1
FE
FD
00
FE
01
FE
00
00
FD
FE
FC
FF
F7
02
FF
01
FB
FD
FE
FF
FF
FF
00
FD
FA
F4
00
FF
FF
00
FC
FF
FE
FE
00
FD
02
00
FB
F9
FD
FF
FD
00
02
FD
FD
FF
00
07
FE
01
FB
FE
FD
FD
01
FF
02
F7
FC
01
FE
02
08
FF
FE
FF
FF
FE
00
FA
F9
F9
F7
FA
03
06
04
FC
F4
F3
F8
F6
F6
FC
FD
FE
00
FD
FE
FB
03
00
F9
F8
FE
FA
FE
FD
FE
FB
F9
FA
F7
05
05
FD
FC
FB
FC
FA
FD
FD
F9
FB
00
02
04
FE
FE
FA
FA
FB
FD
F9
FB
FB
FD
FC
00
01
FE
FC
FA
FD
F8
FC
F9
FC
FC
FC
FB
03
FE
FF
FE
02
FF
FE
FD
FC
FD
F8
FE
00
FE
FF
01
FE
FE
01
FD
FC
FC
FE
00
FD
FF
FB
FD
FF
01
FF
FB
FD
FE
00
FF
FE
FC
FE
FC
FE
FD
01
FA
FD
01
00
01
FF
00
FB
FA
FB
01
FD
FF
FE
00
FF
03
01
01
03
FF
03
00
F9
FF
FE
FF
00
02
00
FC
FE
FD
02
FC
FB
FC
FF
FB
FB
FB
FD
FB
FE
00
00
FA
00
FD
07
FE
FA
F8
F9
FC
FB
FB
F9
FE
FE
F9
FC
FF
F7
FC
F9
FA
F3
ED
F4
F7
FE
FA
03
FB
F9
FA
F9
FD
F4
EF
F6
F2
FE
00
F7
EC
00
01
FB
FA
F9
F1
F0
F1
FC
01
FD
FD
01
FF
00
FD
FF
FB
F3
F5
F6
F8
00
0C
FD
01
02
03
FB
FC
F9
F9
F5
F8
FE
08
09
0C
F9
07
05
FD
01
FC
FD
FD
FF
01
08
0D
0C
01
09
06
03
03
00
01
FD
FD
FE
FF
02
05
02
07
07
0A
08
05
04
00
FA
FD
00
03
FB
05
05
08
05
02
09
05
03
01
FF
00
FF
FE
05
09
05
07
06
07
06
04
FD
02
00
05
04
FF
04
07
03
03
08
03
04
FE
FB
F9
F8
FC
F3
02
04
06
05
05
00
FF
FE
FC
F7
F9
F5
F1
FF
01
03
02
FF
FD
FD
FA
F4
EC
E8
F1
EA
05
F9
FE
F0
F5
F6
F6
FA
FA
00
FF
07
09
FD
FB
F7
F5
F3
F8
FC
03
03
FE
08
01
02
00
FA
00
F8
F7
FD
01
04
04
04
06
05
09
FB
FB
FB
FA
FE
FF
04
06
04
05
0B
0A
0F
02
FF
FA
FA
FF
00
01
06
06
08
08
0C
0C
02
01
02
01
00
FD
03
02
04
0A
10
09
0D
03
00
FE
FE
FF
00
03
02
06
05
0F
0E
0D
07
08
00
FC
FD
00
FC
06
04
0B
0D
18
08
04
05
03
02
FF
FF
00
FF
04
03
09
10
0C
08
07
00
00
04
00
02
02
01
01
FA
FE
FE
03
02
06
01
03
06
03
04
FF
FF
F9
F1
F7
FE
FD
03
02
01
01
03
01
00
F9
FA
F6
FC
03
03
00
04
01
03
02
02
FE
F9
F8
F8
FD
10
13
0C
07
08
04
0F
0B
09
0E
01
0C
0D
09
08
18
19
12
06
09
0D
02
04
FF
06
09
0B
0E
13
15
19
12
0E
0C
0A
02
04
0E
0C
0F
0F
1A
18
24
11
12
13
00
FE
0D
0E
02
16
17
1B
17
1B
20
1E
0E
04
FD
11
11
12
09
0D
15
21
2A
21
19
0F
00
0D
17
11
19
14
0B
0C
16
15
1E
24
19
1D
11
19
1A
14
0B
0A
09
15
1C
18
1A
1E
21
1E
1B
17
1B
15
0C
0D
07
17
19
14
1C
10
1D
1B
1A
17
11
15
09
08
10
0D
19
12
1A
11
11
18
10
09
0F
0F
02
13
0E
0A
1F
15
15
17
10
11
19
0D
13
10
16
04
11
18
11
1A
15
18
0B
13
09
13
14
04
10
11
0D
1A
10
0C
0C
15
FE
FF
03
06
03
04
00
06
02
07
01
00
FC
FF
01
FF
00
05
01
FF
00
FB
FD
FA
F6
FA
00
02
04
01
00
FE
FE
FB
FA
F6
F5
F4
F6
01
01
03
FF
00
01
FA
FB
FB
F7
F5
F4
F1
02
02
FF
03
02
01
FF
FB
F6
F6
F3
F1
F5
05
00
02
FF
FE
01
00
00
F8
F4
F3
F0
F1
02
01
00
FD
FC
01
02
FE
FF
FE
FA
FA
FA
FE
FC
FD
FE
FE
FF
FF
01
01
FE
01
FC
F7
03
F9
FB
01
FE
FD
01
00
01
03
01
02
FD
FE
FC
FA
F8
FA
01
FE
FD
02
02
03
01
01
FF
FD
FB
FF
FD
FB
FC
00
01
05
00
04
06
05
FF
FF
FB
FC
F8
FD
FF
FE
04
03
0A
07
02
FE
FF
FE
FB
FC
FD
F9
FF
02
01
06
03
02
F8
F7
F6
F7
FD
FA
FA
F6
FA
FF
FF
F9
F9
01
FC
FE
F8
FA
FF
FB
FF
02
05
FC
FB
FC
00
FC
FA
F8
FB
FF
00
02
01
08
03
FF
F9
FD
FE
FB
FC
F8
01
05
07
05
09
05
00
01
00
05
05
FE
00
05
07
07
04
03
01
04
0E
0E
09
0A
04
04
09
09
08
05
03
02
03
0E
0B
11
0A
0E
0B
09
08
02
07
FF
01
04
08
12
0E
12
0C
0B
0A
07
02
02
04
03
04
0C
0C
0F
0E
0E
0D
0C
05
00
03
FF
06
06
0D
0B
08
0F
0D
0A
0C
07
03
01
03
FF
FE
0D
07
0D
0E
0C
09
08
06
03
FD
FB
FB
F8
0B
07
0F
07
0D
0B
08
01
00
F7
F6
F9
FA
04
0B
0D
08
12
07
06
01
FD
FB
FA
F5
02
