07
00
FF
03
FD
02
FE
FF
01
02
FD
FE
02
00
FE
FF
02
FD
FE
00
FD
01
02
00
FE
00
FC
03
FC
FB
FC
FF
FF
FF
FE
00
01
01
06
FF
F8
00
FB
FE
FD
FF
FC
FE
FE
01
00
08
00
FB
F9
FB
FC
F9
FC
FE
00
FF
01
05
09
FB
F6
FA
F6
F6
F7
FC
FD
FF
01
01
05
07
FD
F9
F9
F8
FA
FA
FB
FF
FA
04
00
04
03
FE
FC
F6
FC
F8
F9
FA
00
FC
02
01
01
02
F9
FB
00
FA
FF
FF
F9
FD
FF
FF
02
03
03
F9
FD
FD
FE
FE
FD
FE
FE
FF
FF
02
03
FB
FD
FF
F9
FE
FC
FE
FE
FC
FD
FE
FD
FD
FA
01
F9
FF
FD
FD
FF
01
00
FD
FB
FD
F9
FF
00
FF
03
FC
FD
FA
FE
FC
FD
F9
FD
FE
F3
04
01
04
04
FF
FC
FC
FA
FE
FC
FE
FE
04
04
FC
00
FB
02
00
FD
FF
02
02
02
FE
FF
01
FE
05
FD
FC
FE
FE
FF
02
04
03
06
FC
06
FE
FD
FB
FD
FD
FC
03
06
07
05
03
00
01
FA
00
00
03
FC
00
03
01
03
01
02
FF
FA
FE
FF
FF
FC
00
00
04
03
01
02
FF
FF
FA
FF
02
FF
02
FF
FF
00
FE
FF
FF
02
04
04
03
FD
FD
FE
00
FF
00
00
03
00
00
FF
00
FA
FC
F7
FE
02
00
05
03
03
03
01
00
FB
FD
FA
FE
FE
02
02
00
00
03
00
06
FD
FB
F9
04
00
00
00
00
01
02
FF
05
FE
05
00
FC
FB
02
FD
FE
03
01
01
04
00
FE
04
F8
FF
FC
00
04
01
01
00
05
00
01
09
07
04
05
00
09
05
03
FC
F6
FD
FC
FC
FB
0E
01
03
09
01
02
01
FB
FA
F5
F7
F7
F9
00
FF
FD
05
03
04
03
FC
F7
F1
EE
F3
FB
FE
FD
03
07
03
06
FD
FE
F8
F8
F6
F8
04
FD
04
0A
06
08
03
FB
F6
F9
F7
F5
FE
05
FC
04
07
07
05
06
04
FB
FC
F9
FA
01
00
06
09
0B
0A
0A
08
FE
05
02
FF
00
00
04
08
06
04
09
08
0C
05
07
04
02
07
08
05
0F
03
00
07
07
09
0C
09
06
09
09
07
03
08
01
05
00
08
06
06
0B
07
0E
0C
0E
01
10
00
FC
04
01
06
0B
07
07
0A
09
08
04
11
FF
06
02
05
05
06
0A
12
0A
0A
0C
12
07
02
FB
08
06
0A
08
0D
08
0C
10
0E
0D
09
0A
01
04
01
02
07
06
FF
04
00
02
00
00
09
07
03
00
00
05
FE
02
04
FF
02
03
08
03
02
07
05
02
03
00
02
00
01
04
01
00
09
06
07
07
06
06
05
01
04
03
01
00
FF
06
06
09
07
0A
07
05
03
03
03
03
02
FC
05
07
06
0A
08
04
05
08
04
03
06
FF
00
03
05
05
07
06
04
04
04
02
02
02
00
01
02
01
09
05
03
05
01
02
02
01
FE
FF
FC
03
03
05
01
05
04
00
FF
03
02
00
FF
00
00
04
02
00
00
01
03
FE
00
03
FE
FD
00
01
02
04
01
04
00
01
FC
FF
FF
FE
F5
00
01
03
FF
04
02
FF
03
FF
FD
FC
FE
FB
FA
03
04
02
02
01
00
FE
FD
F6
F5
FC
07
FE
06
08
04
03
FC
04
00
04
FE
01
05
FF
FE
03
0A
00
03
00
01
00
06
FF
FE
02
07
00
0A
00
08
05
FF
FE
03
03
04
FF
04
FD
07
06
00
03
09
00
05
05
03
04
FF
FE
00
03
04
07
0D
0C
03
07
02
04
04
FC
FF
02
04
06
02
0A
08
07
02
05
03
01
FE
05
FF
00
0A
07
09
0A
01
02
FE
03
06
01
03
03
06
05
08
04
0B
03
02
01
00
00
06
06
03
FF
01
00
04
00
FD
FF
FE
FF
06
06
07
04
03
00
00
FC
FB
FE
FE
FE
FC
02
01
FE
03
FF
FB
02
03
FE
FC
FE
FB
F8
FC
FE
FC
FD
00
FA
FE
FC
FD
FE
FD
F6
F9
F2
F8
FD
F8
F8
01
FD
FC
FA
01
00
FC
F7
FC
FA
FF
FF
FA
FF
F6
FA
FB
FA
FA
FB
FB
00
03
01
FD
FE
01
F8
FE
FC
FC
FB
FA
FF
01
FD
FD
FA
F8
FE
FC
FC
00
FE
FD
F8
FB
F8
F7
F9
F5
F8
FE
FB
FF
02
FF
FC
FF
F8
F8
F6
F7
FA
F9
FE
01
02
05
04
FE
FF
F9
F8
F7
F9
F7
FC
03
09
04
09
07
01
FE
02
F9
F7
F9
FE
FB
05
04
09
0B
0A
05
04
03
FB
F8
FA
01
FA
05
0B
0B
0D
07
05
05
04
00
FB
FE
F9
02
07
0B
0D
0A
09
08
07
03
02
FC
F9
F4
FD
0C
0E
0F
07
08
03
07
06
01
FE
FB
FA
F6
0D
0B
0E
0A
05
04
02
FF
FC
FF
FA
F6
FC
0A
0A
0D
0F
05
04
03
01
00
FE
FC
FA
FC
09
0D
13
0E
0C
04
04
01
FB
FA
FB
F8
FF
09
F6
FB
F8
04
FF
00
FE
F9
F9
03
F2
F5
FD
FD
F9
F9
FE
FE
FD
FC
FF
00
00
FE
FB
FF
FD
F8
FE
FD
02
FF
FF
02
FD
00
FD
FE
01
00
FD
FC
FC
00
FC
01
01
00
FF
03
00
01
00
03
FA
FF
04
02
FF
FF
FF
02
FF
03
FF
00
FE
00
FD
03
FF
FE
FC
FF
FF
00
FF
0C
04
00
03
01
00
03
FE
00
00
FC
FF
02
09
07
02
02
02
FF
FF
FD
FF
FD
01
FF
05
02
FF
01
FC
00
FA
FC
FC
FE
00
00
FE
0B
00
00
01
FE
FE
FC
F9
FC
FE
FA
FF
03
00
FA
FD
03
FE
FD
FA
FB
FE
FB
FE
01
02
FB
01
03
FF
FC
FF
FE
FC
F8
F9
FE
00
F9
F5
02
00
06
05
FD
01
FC
FB
FB
F9
F5
F3
F5
00
05
06
FE
02
01
02
00
01
FD
00
00
00
08
06
07
03
04
03
FE
03
00
FD
01
FE
04
04
FF
09
03
04
00
00
01
FE
01
00
FF
02
07
07
04
03
FF
00
FF
FC
FE
FE
FF
01
02
09
FE
01
FF
FF
FD
FB
F9
FF
FE
FE
FD
FE
01
FF
F9
FA
FB
FD
FE
FB
FC
FD
FD
FE
FF
00
FD
FB
F8
FA
FB
FB
FA
FC
FC
FD
FE
FB
F8
FB
FB
F6
FB
FB
F9
FA
FE
FF
FD
FC
FF
FE
F9
F9
FB
F8
F9
FE
FA
FC
02
FC
FE
FF
F2
F9
FC
F7
F9
FB
FA
FD
FF
FB
FC
FB
FD
FB
F6
F9
F4
F8
F5
F8
FA
FD
FF
FB
03
F8
FD
FA
F6
F7
F6
F9
F9
FA
FD
FE
FE
01
FA
FE
F1
F4
F6
F0
F3
F6
F9
FA
FF
FF
01
05
07
02
06
00
01
FE
04
FB
04
FE
03
FF
05
04
03
0A
08
03
FF
01
FC
FE
01
FF
02
01
09
0D
11
0C
09
03
05
FB
02
03
02
01
FD
0C
12
0E
0E
0A
05
FE
FF
00
03
06
04
FE
0D
0B
0D
0F
0C
07
05
01
02
03
04
01
01
0A
0C
0F
0E
0A
08
06
06
03
05
06
06
02
06
10
0E
10
0C
0A
05
06
00
06
06
06
02
08
0C
0E
0D
0B
09
02
04
07
05
06
07
01
0D
11
11
0D
0B
0C
08
06
05
04
03
02
07
0A
12
0F
0D
0D
0E
08
07
05
05
02
07
04
08
13
0B
09
0D
0A
08
06
07
02
02
04
02
F9
07
07
09
09
0A
05
07
07
05
01
FE
FF
07
09
07
06
09
08
07
05
03
03
FF
00
F8
01
FD
02
FB
F9
F5
F6
F8
F8
F5
F7
FA
F6
FB
FE
FA
FD
FC
F7
F5
FA
F7
F8
EF
EF
F2
FE
FC
FB
02
FA
F8
F8
F7
F7
F9
F3
F6
F6
F9
FD
F8
FC
F8
FA
FC
FD
FB
FA
FC
F8
F5
F5
FE
FF
FC
FC
FF
02
FD
00
FD
FA
F7
FB
FD
00
FC
00
02
FB
FD
03
04
00
F9
FD
F9
FB
FC
FC
FA
01
02
00
02
05
02
01
FC
01
F9
00
FE
FC
01
01
04
04
04
03
00
FC
00
FA
FE
02
FC
FE
FE
06
07
0C
09
09
FE
FD
FA
FC
00
01
02
07
08
0A
0B
0B
0A
02
FA
01
00
FF
01
03
07
05
0A
09
07
0B
05
FE
FF
03
FE
00
06
08
0A
06
0A
08
07
09
FE
F9
00
03
08
09
0F
0D
10
10
0A
09
09
06
05
04
F9
FB
00
FC
F6
FE
01
FC
FE
00
06
FB
F4
F8
F4
F6
FB
F8
FD
01
03
FF
FD
01
F6
F3
F8
F8
F8
F7
FB
FE
01
01
FF
01
00
F0
F7
F9
01
FE
FC
FF
FF
01
02
01
02
FF
F5
FD
FD
FF
FE
FF
FB
FF
FC
00
01
00
FF
FB
FF
FF
FF
05
00
00
FF
00
FF
FB
01
01
F9
FA
00
01
03
05
FD
FF
FD
00
01
FE
02
FC
FF
05
04
06
FD
FC
FD
01
FC
FE
02
01
F7
FD
FF
05
FF
FE
FD
FF
FE
FD
01
FD
01
FD
FC
FF
03
04
06
02
02
02
02
01
00
02
FF
FC
FF
FF
07
05
09
03
FF
00
01
04
02
F5
01
01
03
06
05
08
04
05
03
03
02
04
FF
02
FD
07
06
08
0A
0E
0D
05
07
08
03
05
0B
0D
0D
07
04
00
F3
EF
F6
EF
F9
ED
06
0B
0F
0C
0C
03
06
F9
F7
F3
F7
F6
EC
0C
0F
0A
09
07
07
02
FD
FA
01
03
F7
F7
05
0B
09
06
07
FF
03
00
FC
FE
00
00
FD
00
07
04
0B
06
00
FD
F9
FC
FC
F8
FB
EB
0D
0C
05
09
06
03
FD
FD
F9
04
FE
FE
F9
04
06
0B
0F
03
04
FC
FA
01
FD
01
F7
F5
06
07
0B
0E
0B
00
FD
FE
00
FD
FF
FB
FD
02
04
08
09
06
04
FE
01
FB
02
FF
F9
FB
04
01
08
08
06
05
05
02
04
04
F7
FE
F9
FF
06
04
06
08
08
07
05
07
04
01
FD
00
FE
02
02
05
03
04
04
08
04
0B
03
02
0E
FB
F8
FB
FB
FC
FC
FB
01
07
07
0C
12
FD
01
0A
0A
0D
05
01
02
00
FF
FF
FB
04
0F
05
0A
07
0C
05
08
04
0A
FF
FD
FE
FA
0A
07
0C
0E
07
06
0B
09
08
07
04
01
F6
00
07
05
09
09
07
0C
08
0A
02
00
FF
F8
F7
08
05
04
06
07
06
07
07
02
03
FA
FA
F9
00
05
07
05
05
03
06
04
04
01
FD
FA
FA
FE
03
00
04
06
03
04
01
04
FC
F8
F7
F3
FE
00
01
00
01
00
FC
FF
FC
FF
FA
F6
F7
FB
FC
00
01
04
FE
FD
F8
01
FC
FF
00
FC
FA
FF
FA
FD
03
FE
FF
FD
FF
FC
F8
FE
02
FB
FB
FC
FB
00
03
01
04
FF
03
02
F8
00
FA
FA
FE
FD
01
FE
01
00
02
04
04
05
04
FE
00
FB
01
FE
00
01
04
02
05
0B
07
03
0E
14
09
11
0A
13
06
0B
0C
05
0C
07
12
14
0B
10
0E
0B
09
05
02
0C
07
13
0D
09
07
0B
07
11
08
08
01
07
05
09
15
07
11
0F
02
09
05
0D
0E
1A
1B
11
0B
0F
0D
04
11
08
FF
0A
0A
0A
0D
0B
0A
04
02
04
0B
0F
0F
FC
05
FF
07
0F
0E
04
00
0F
09
03
0A
07
09
05
0F
0E
19
1D
0D
11
0E
FE
0E
0E
14
07
13
0F
1C
1F
25
1A
0B
0B
0C
13
16
09
08
11
0B
15
22
22
15
17
0B
07
0F
0E
13
0D
0E
13
19
20
1D
22
12
0D
0F
0D
0B
0F
06
14
12
0F
13
20
1C
1F
1B
07
15
16
09
11
10
1B
11
10
1A
1D
1B
0E
0A
14
0A
08
0B
0A
0D
0E
16
1D
1E
10
10
0E
0C
FF
F9
FD
FA
FC
FE
F9
FB
FA
FC
FB
FC
FE
FF
FD
FF
FE
04
05
00
02
01
05
01
FD
FE
FA
00
FF
FD
01
FF
01
00
00
FD
00
FE
F9
FC
FC
FF
FA
FD
02
00
02
06
02
02
01
FC
FB
00
FC
FD
FF
00
03
02
04
03
05
02
FF
FE
FD
FE
FB
FB
00
00
04
03
01
01
FE
FF
FD
F9
FA
F9
F8
FD
01
01
01
03
01
00
02
FE
FB
F9
F9
F7
FA
FD
00
00
00
02
03
02
06
FB
FA
FC
FB
FB
FF
FF
FE
FF
00
05
FC
01
FD
FC
F9
FC
01
FD
FB
FE
FD
01
01
FC
00
FF
FD
00
03
FC
FC
FF
FF
FF
FB
FF
FE
01
00
FD
00
01
FD
02
02
FD
02
01
FD
00
02
FF
01
04
01
03
03
00
03
06
07
FF
04
F9
FC
FE
00
FD
04
04
03
00
FF
00
03
FF
FE
01
FF
06
06
07
07
02
03
02
02
01
FB
07
07
08
04
0A
08
02
02
01
FE
FD
01
01
02
05
0A
08
09
02
01
FF
FD
F8
FB
FB
FF
09
0D
05
06
09
02
01
00
FB
FB
FE
FE
04
09
02
03
07
07
FD
FD
FB
FD
FD
FF
00
01
00
02
04
02
05
01
F9
FB
FD
01
01
FF
03
02
09
02
06
08
04
00
F9
00
03
01
02
FF
FE
05
01
00
03
04
00
FB
FF
FF
FE
03
02
FC
FA
F9
01
03
FE
F5
F9
FD
01
FF
02
01
FD
FF
FD
01
02
FE
FE
F4
02
FC
FE
FB
02
F9
01
FA
FF
FD
02
FA
F7
04
FB
FB
FB
FA
01
F4
FE
F5
04
F8
FE
FB
F7
FF
F9
F6
FC
