04
00
06
FF
02
03
00
04
04
00
02
01
00
03
04
06
FE
04
00
00
01
03
06
03
06
08
01
FD
FD
FC
00
01
02
00
00
05
04
07
01
FF
F7
FE
FE
03
FF
02
01
FF
00
06
04
09
FE
F7
F9
FB
FF
FE
02
02
01
04
02
05
06
F7
F8
FB
F7
FE
FE
01
FF
01
01
FE
05
04
F9
F7
F7
FB
FD
00
FF
00
FC
04
FE
00
00
F5
FA
F4
FB
FA
FC
FD
00
FD
04
00
00
00
F8
FC
F9
FA
FF
00
FA
FD
FF
00
03
00
04
FA
FE
FA
FC
FE
FF
FE
FF
02
00
02
02
04
F6
FD
F6
FC
FD
FC
FF
FD
FE
FD
01
FF
02
FF
F8
FF
FC
FE
FD
00
00
FD
FE
FF
02
04
F8
FE
03
00
01
03
03
FE
00
02
04
03
07
FE
FC
FF
05
FC
FF
FE
FE
01
02
03
FD
FF
FF
FF
FE
FE
00
FB
FE
FE
00
01
07
02
02
03
FC
01
FD
FC
FF
00
FF
FD
04
02
07
03
04
02
00
FC
FD
FB
FB
FD
01
01
03
06
08
F9
FE
00
FE
FD
FC
FE
FA
FD
01
FF
03
04
01
00
FD
FE
FE
FE
FB
FD
FF
FB
00
02
07
FB
FC
00
FB
FE
FA
F9
F9
FA
00
00
FE
FC
01
FC
FC
FD
FC
FB
FE
F9
FA
01
FF
FD
02
F8
FB
FB
F9
FA
FD
FA
FE
F9
FE
01
03
02
FB
01
FD
FE
FB
FD
FB
FC
FC
FE
FD
FF
06
FF
F9
FC
FE
FC
FA
F9
FB
FC
00
03
00
0B
02
FE
FB
FF
FA
F7
FE
FD
FC
01
04
06
06
FB
FB
FA
FB
FA
FC
FB
FB
FE
FE
05
FF
FF
01
05
FC
01
FF
00
FF
FE
FC
F5
F6
01
00
FE
FF
01
FB
04
06
0A
0A
03
FA
F9
F1
F5
FD
FA
00
00
09
0D
0A
0D
01
F9
FE
FC
F6
FB
01
01
03
0A
0E
0E
0C
04
FA
F4
01
F7
FE
06
01
09
0E
10
11
12
05
FA
F6
F8
F4
FF
02
06
05
0D
11
10
08
FA
F4
FD
FB
F4
03
05
07
0A
10
0D
13
05
FB
FB
FC
FE
04
00
04
06
0A
0C
0B
0B
02
FA
03
FC
FF
0B
FD
05
08
06
0A
09
0B
03
02
01
00
03
06
FD
00
00
07
07
06
05
02
FC
FE
FB
F6
FB
00
00
08
00
05
0A
0C
06
00
FD
FE
01
04
03
05
03
03
04
07
07
0E
00
FB
02
06
F6
04
03
FF
05
08
04
09
03
FF
03
F5
F4
F3
03
FF
00
05
01
03
05
FE
FF
FC
01
FE
00
05
02
03
01
FF
04
FD
FE
01
FE
FF
FC
FC
FE
04
03
05
03
04
03
01
FD
FF
01
FD
F8
01
03
08
05
03
05
05
FF
00
01
FC
FC
F8
07
04
07
03
05
04
02
FF
FD
FC
FB
FB
F4
FF
08
04
05
02
01
03
03
FE
FE
01
FE
FC
00
01
07
05
05
02
06
05
00
FF
FD
FE
FE
04
04
05
04
04
03
04
05
05
00
FE
00
FF
07
04
03
02
04
05
04
03
04
03
FF
FE
FF
03
02
04
04
02
02
09
04
06
05
FF
FE
FB
04
03
07
05
08
06
08
05
06
04
01
FD
FD
FF
04
01
04
05
09
0B
08
04
03
FC
FC
F8
04
03
05
04
03
09
08
07
07
01
01
FD
F3
05
02
08
02
00
03
01
03
FF
03
01
FF
FE
0C
08
06
03
06
06
03
07
02
FB
01
FF
FD
0B
01
08
06
07
02
06
03
01
FD
FB
01
FA
FE
01
06
07
09
0A
07
FF
FF
FC
FB
F9
FA
07
06
0C
0A
08
07
FD
FF
FD
FA
F7
F6
F3
03
03
08
06
09
00
01
00
FC
FA
FC
F7
F8
FB
0A
04
06
04
01
FE
FF
FF
F7
F9
F6
FC
01
05
01
08
08
00
01
FC
F8
FA
FD
F7
F7
04
05
04
01
FF
04
FF
FD
01
FA
F8
F4
F5
00
01
03
03
FD
FF
03
FD
FD
FD
F8
FE
F5
FE
FD
0A
07
01
03
02
02
04
FC
FE
F8
FB
05
03
04
02
01
05
FF
03
02
01
FB
FF
FB
FE
01
05
07
01
03
05
01
02
03
08
05
FF
03
FE
00
01
FE
FD
FD
F7
F8
F5
EE
EE
F2
00
FF
05
06
01
FE
FD
FC
FD
F6
F0
EA
F0
00
04
04
05
06
03
00
00
FA
F7
F7
EE
F3
07
07
08
0A
07
04
07
01
FF
F5
F5
F4
F3
0A
0A
0A
0C
0A
08
0B
07
02
FD
FC
F9
FA
09
0C
07
0B
0B
05
06
08
01
FD
FA
FB
FB
07
04
0B
0E
0E
0A
0A
08
04
FE
FB
FE
F9
FE
08
07
0B
08
08
09
07
03
FF
FD
FB
F9
02
00
02
05
08
09
09
06
04
01
FD
FF
FB
FE
00
02
02
06
05
04
05
FF
01
FF
FE
00
00
02
03
05
04
03
02
02
FF
01
FE
03
01
01
FD
01
03
03
05
06
03
02
02
08
03
FE
00
FC
01
FC
0A
08
05
05
07
06
01
09
04
06
06
0A
02
08
04
01
FC
FE
00
00
01
F1
02
06
02
04
03
03
FF
FA
FE
FC
02
F6
FA
03
04
05
04
01
04
01
01
04
00
04
FF
FC
01
FF
02
02
02
02
FD
00
03
FF
00
04
FE
04
FE
06
00
02
06
03
02
03
03
04
04
04
00
FD
00
03
FF
05
02
00
FF
07
06
06
02
FE
01
FE
01
00
FF
02
01
04
06
03
02
02
FE
FB
FA
FD
FE
FE
FE
00
03
FD
03
01
FA
F9
F8
F9
F8
02
FD
FF
01
02
04
00
01
02
FA
F8
FD
FE
01
FE
FD
01
01
FF
FD
FF
FA
FB
F7
FD
FF
FE
FF
FF
03
01
02
02
FE
FE
F9
FA
FD
FD
03
01
FF
FC
FD
FF
00
FF
03
F7
FA
00
00
FF
02
03
03
FF
07
FE
00
01
FD
00
FE
02
02
03
02
00
01
01
02
02
05
03
00
FF
03
04
02
FD
03
02
FF
00
00
06
FE
00
07
01
04
01
00
01
01
02
01
00
03
05
02
00
00
FE
FE
FE
FD
02
02
03
00
FF
07
01
02
00
FF
FD
FC
FC
04
03
00
FD
FF
05
00
FC
FD
F9
FD
00
00
02
02
00
01
00
07
06
02
FF
FC
FD
FF
01
02
00
01
02
03
04
05
03
FD
FF
00
FE
01
06
04
01
02
03
04
01
04
03
00
01
03
01
FF
05
03
04
03
03
04
08
00
02
02
02
03
03
00
00
02
00
07
02
04
00
04
02
01
01
02
00
00
FF
FE
05
0A
06
04
03
03
01
01
01
00
FB
F8
FC
02
07
04
06
04
02
FF
FE
FD
FC
FA
F7
FA
02
F8
FA
FD
02
FE
FC
FE
FF
FD
01
FF
FB
FB
FE
00
06
05
00
01
FC
FB
FC
F9
F9
FB
06
05
08
07
07
05
02
FE
FB
FA
FA
FA
FD
09
09
08
0A
02
FF
FE
FF
FA
FA
FF
00
FE
09
0D
0E
07
03
FB
FC
FA
FC
F9
FD
F8
FC
0D
0C
10
06
00
F9
FB
FD
FC
FB
FC
FA
FA
0E
10
09
09
FF
FA
FA
FD
FA
FA
FC
FD
FE
14
10
0A
02
02
FB
FC
FE
FC
FC
FA
FB
FB
09
0B
08
FF
FF
FD
FD
FD
FD
FC
FA
F8
FD
10
08
00
03
FE
02
00
02
FF
FD
FC
FF
FB
0D
09
01
01
05
FE
02
FD
FF
FB
FE
00
F8
07
FF
09
07
05
03
00
FF
FF
00
FE
FE
00
01
01
01
05
06
01
FF
FF
FF
FF
04
03
02
F7
FD
FF
00
F8
F5
F6
F7
FD
FB
FC
FE
FA
FC
FE
F5
F8
F7
F2
F4
FA
FA
F9
FB
F4
FC
F7
F7
F8
FB
F8
F5
F5
F5
F8
F9
EF
F7
F7
00
FA
F5
F8
F4
F3
F6
F8
F7
F5
F7
F4
03
F3
F9
FE
F8
F4
F3
F6
F3
F7
F5
F5
F2
FB
F8
FB
FA
F9
F4
F1
F4
F6
F8
FA
F4
FA
F6
FD
FE
FA
F9
FA
F6
F5
F9
FB
FE
F9
FB
01
F8
FA
FB
FC
FB
F9
F8
F8
F9
FA
00
00
01
FE
FA
FF
F9
FC
F7
FB
FB
FA
FE
FC
FE
FF
FE
00
FF
FF
FB
00
FC
FE
FF
FB
04
07
01
FE
FC
FC
FE
01
01
FE
FF
00
01
00
02
05
FA
FF
FC
FB
00
01
02
FE
02
FF
FD
03
02
F9
FD
00
FE
FF
01
FE
FE
04
00
04
F9
FC
F9
FA
FC
F5
F6
FC
FE
01
03
FF
02
00
06
F6
F6
F5
F5
F4
FE
FB
01
02
04
02
FF
FF
FE
F6
F3
F4
F6
FD
01
01
02
03
02
01
02
F6
F8
F4
F9
F8
FC
FF
00
FE
01
00
01
FF
F5
F5
F7
F8
F8
FE
FD
FE
FD
FF
FE
FE
FF
F9
FA
FC
FD
FD
FE
00
FF
FF
00
FA
00
02
F9
FD
FE
FA
FD
FF
FC
FE
FD
FF
00
01
00
F9
F9
FD
FC
FD
F8
FD
FE
01
FD
FE
FF
00
FA
FC
FD
FF
FB
FA
FF
01
01
FD
01
FE
FB
FB
FD
FD
00
FD
00
FE
00
01
02
01
FE
02
FB
FA
FD
FD
FD
FE
02
00
FC
FD
01
06
01
F7
00
FB
F8
F7
F7
02
FD
FF
02
02
00
FF
01
03
FD
FC
FA
F7
00
FF
FD
F8
01
FF
02
09
06
07
05
09
0E
11
14
12
06
04
07
F9
02
04
0A
0C
14
0C
14
13
0E
02
01
F6
05
08
09
06
0F
0F
13
13
08
00
FC
F6
FA
EC
05
09
0A
0C
10
0C
10
0A
FE
FF
F3
F5
F5
06
09
04
0B
0E
10
0C
09
03
F6
F5
EF
FE
0B
0B
09
0E
10
0F
0E
07
F8
FF
FD
FD
FE
08
0B
10
14
0E
0F
0D
05
FC
F8
FC
04
03
0A
0E
12
13
10
0E
0D
05
FD
FB
FF
FF
FC
08
0B
0A
09
10
0C
0B
08
FD
FB
FD
F5
F2
08
08
07
07
09
08
05
01
FD
F9
F5
FD
F2
01
0B
03
05
0B
03
02
02
FF
F9
FD
FA
FA
06
07
08
07
06
03
01
01
FB
F8
F6
E8
E6
04
03
01
01
01
00
FE
F9
F2
F1
E0
E8
F1
01
06
08
11
0E
0E
0D
08
07
02
F8
F8
F1
02
07
04
09
06
09
05
08
04
00
FE
FB
F5
07
08
09
04
07
06
03
03
00
FD
F6
F0
EF
08
05
06
08
06
05
02
05
00
FC
F5
EC
E9
05
05
02
02
05
02
03
04
FF
FE
FB
F7
EC
00
07
08
04
03
00
01
01
FF
FF
01
F6
F3
07
05
03
02
01
02
05
03
04
FE
01
FC
F2
0A
06
02
00
00
03
01
07
04
05
FE
FD
EF
07
01
05
05
02
00
03
02
00
00
FD
FD
F3
09
06
03
02
06
02
03
03
00
FE
FD
F9
EB
03
05
08
03
05
04
06
02
FE
03
FA
EE
E5
03
00
05
04
03
00
02
FF
FD
FD
F6
EF
EA
04
03
FD
04
00
04
01
04
FD
F8
EF
E8
EA
FB
FE
F1
F1
F9
F4
EF
FA
EE
F4
F2
FC
FA
FC
FA
F7
F3
F8
F0
F4
EC
F2
F5
F5
FE
F4
F9
FE
F0
F2
E9
EE
F0
F2
FC
FA
F8
F4
F9
00
F2
E7
DE
DC
D7
EA
E9
FA
F5
FA
FD
FB
F9
F7
ED
E2
E1
D9
E5
F0
04
FF
FE
FB
FD
F4
FB
EC
E0
D6
DA
E1
FB
00
FC
F6
F4
FE
F3
F8
F0
DF
DB
DB
DE
E8
FA
05
FB
FE
FD
04
FF
EC
E4
E4
E0
E2
F1
02
FC
05
F2
FD
FD
FE
F2
ED
EE
E4
E0
E4
F7
F1
F3
F6
F6
FC
F0
F1
F8
EF
E2
E8
E5
E3
F9
F8
EE
00
F6
F8
FC
F8
F3
E4
E7
EE
F6
F9
F9
F2
FE
F3
F5
FB
F6
EE
F9
FB
EF
F9
FC
F2
F0
F4
FC
F7
F6
F5
00
FD
EE
F1
FB
F5
F2
F8
00
FD
FD
01
01
00
01
FF
FC
F8
FC
ED
EF
F5
00
FC
00
01
04
07
01
05
06
05
03
03
00
F9
FE
00
FF
05
02
03
02
04
04
05
06
02
FE
FB
FF
FF
00
04
FF
00
06
04
04
09
04
F9
FF
FC
01
03
02
FF
FD
FD
03
04
05
08
00
FD
FE
FE
FE
FF
00
00
FF
FD
02
03
04
FC
FE
FC
FB
FA
FD
FF
FE
00
01
02
00
03
FA
FB
FA
FC
FA
FD
FA
FE
00
01
03
FF
00
01
F7
FB
FF
FA
F9
FD
FF
01
04
02
03
08
FE
FB
FD
F8
F9
FF
FD
FD
00
03
05
06
09
02
FB
FA
FC
FD
FA
FB
FF
00
05
02
09
05
00
00
FD
FA
FB
FA
FE
01
FE
03
07
0B
08
00
FC
FF
00
FD
FD
FE
FC
00
05
08
0F
FB
FA
F4
FB
F4
F5
FD
FF
FB
FA
FE
01
01
02
FE
FD
FA
FD
FA
FC
FE
FB
FE
FD
FE
FC
FF
FB
00
FE
FB
FA
FB
FC
FD
FB
FC
FD
FE
03
FC
02
FF
00
FD
FA
FE
FA
FC
FC
FE
FD
03
06
02
01
04
01
00
02
FF
FB
FA
FA
FB
FE
0A
0C
0A
08
07
02
01
00
FD
FB
FB
FC
FF
0A
0A
09
08
0C
08
05
02
FA
FF
F8
FC
01
09
0E
0A
0C
0A
08
06
00
FB
FA
FB
FD
FF
0E
12
0C
0C
0F
0B
0C
01
FD
FC
FE
FD
FD
0F
0E
0A
10
11
0D
0A
07
FC
FD
FC
F9
F5
0E
0A
11
0B
0B
0B
08
00
FB
F6
F4
F1
F0
0B
12
0E
0A
0B
0A
06
F9
FB
EB
EF
F6
EB
0E
0D
15
0B
0D
0A
02
FB
F9
EF
E5
F0
F6
