03
FC
06
01
04
02
FF
02
03
00
03
00
00
03
FD
03
00
00
FF
FE
00
02
03
FF
04
06
FF
FE
FB
FD
FF
00
00
FF
FD
02
02
03
05
FA
FC
FF
FD
00
FE
FE
FE
FE
FB
04
03
02
FA
FA
FE
FC
FD
FE
00
01
01
02
03
05
07
FA
FB
02
FC
01
FE
FF
FF
02
01
FD
04
00
FF
02
00
02
02
02
01
02
FC
02
FE
01
FF
FD
FD
FC
02
00
01
00
02
FE
01
FD
FC
FC
01
01
03
01
02
04
FE
FE
00
FE
FD
FC
FF
04
03
02
03
02
02
01
01
03
FE
01
FE
FE
03
02
FC
04
02
01
02
02
01
00
FC
FC
FE
08
FE
02
05
04
01
03
04
02
00
01
FA
FC
06
05
07
02
02
03
03
00
FD
FE
FA
03
FA
06
FF
FD
05
FE
FB
FD
FE
01
01
03
01
03
04
00
00
FF
02
FE
FE
FE
03
01
05
00
08
01
FE
04
00
FE
FE
00
01
01
05
08
07
05
02
01
04
FD
FD
FA
FC
01
04
00
03
03
06
FB
FD
FF
FE
FF
FB
01
03
01
06
00
05
04
04
00
FF
FF
FF
00
FE
02
06
02
04
04
03
FF
07
01
03
04
01
00
FF
01
02
02
01
FE
04
01
03
02
03
01
00
FC
00
00
FF
F9
F8
FF
02
04
00
02
03
FF
04
FD
FF
FF
FD
FE
00
06
00
03
01
02
FF
FF
FF
FE
FA
FB
F9
05
01
03
07
03
01
00
FE
01
01
FE
00
F4
08
03
05
09
06
FF
02
FF
01
FD
FC
01
FC
FF
04
01
00
04
04
03
03
FF
F9
F7
00
F5
FB
00
FE
FF
F9
FB
F7
F9
F0
F7
F5
FC
FE
FF
01
00
F9
FE
FC
FB
00
FB
F9
FB
FB
03
00
FE
FF
FD
FE
03
FF
02
FC
FE
FE
02
FD
FD
FD
FE
FF
FF
02
01
02
01
01
FD
00
03
FB
07
02
01
00
FF
FF
02
00
02
08
01
FB
FE
FD
00
FA
02
04
FB
FF
FE
FC
FD
FA
FA
FD
01
00
00
00
FC
01
FC
FB
FC
FF
F7
FB
FC
FE
FC
FD
00
FB
FA
F7
F9
02
06
FB
FB
FA
FF
FD
FB
F8
F8
FA
FA
FB
FF
FF
F3
FD
FC
FD
F6
FD
F8
F8
FA
F6
F8
01
00
FD
ED
FF
FA
FE
F4
F7
F7
F3
F3
F8
F7
F8
F7
FB
FC
00
FD
F9
F6
F7
F2
F6
FA
FE
FA
F1
FD
FF
FE
FC
FD
FB
F6
F1
F1
01
00
00
F0
FC
07
FE
FC
02
FE
01
02
FD
FE
FB
00
FE
00
04
03
02
FD
00
01
FD
FD
00
FD
FF
FD
FF
FC
02
02
05
03
02
01
01
FF
FF
03
FF
F3
04
03
04
02
04
05
02
01
01
FF
FF
FB
FC
FF
FE
08
04
05
04
01
00
FE
FE
FC
FD
FA
06
05
04
05
04
FF
04
03
FF
01
03
00
03
04
02
03
02
02
02
04
04
00
00
03
03
07
05
00
02
00
FE
01
01
03
04
03
01
07
07
04
00
FE
FC
FF
02
01
02
03
05
03
06
0B
FE
FF
FB
FD
FD
FE
02
02
03
04
06
06
0C
FE
FB
FD
FB
00
FD
01
02
02
03
06
0A
0E
FA
FD
F9
FB
FD
FE
00
00
04
07
07
0A
0C
04
F9
FB
FA
FA
00
FD
01
FE
00
03
08
08
FA
03
FE
01
FD
F9
FD
00
FD
FE
00
FC
FF
FB
00
01
FF
FA
FF
FD
01
FC
FF
FE
FE
FE
02
FD
FE
05
00
00
01
01
00
01
FC
FF
FE
01
00
04
05
00
03
03
FC
FD
FD
FB
FF
FD
FE
01
02
06
00
00
FF
FC
FC
FA
FB
FD
FF
01
FF
09
05
06
FE
02
00
FC
01
04
03
03
05
05
07
09
03
FF
FD
02
03
01
02
06
0B
0A
06
05
0B
04
FE
01
FD
FF
01
0A
05
09
01
05
06
04
02
01
00
FE
01
04
05
08
0E
00
FF
00
00
FF
01
01
FE
02
04
04
09
08
02
FF
01
02
00
00
01
01
04
FC
04
00
07
04
01
02
FE
01
01
FE
00
FF
01
01
03
06
02
01
01
FD
01
00
02
00
FE
FE
FD
01
01
02
FE
01
FF
FF
FF
FB
F7
FB
FC
F5
F3
F4
03
01
05
03
02
FF
FD
00
FC
F8
F5
E9
F1
04
05
04
03
03
01
FE
FF
F9
F4
F7
F0
FA
07
06
05
07
04
02
04
FF
FB
F8
F7
F7
FD
08
06
05
07
07
03
04
FE
FF
FF
00
FD
02
07
0B
05
07
06
00
00
01
FC
00
01
03
04
03
01
09
0A
08
03
02
00
FE
FE
FF
05
06
01
07
05
06
01
03
02
01
02
02
07
07
0C
03
03
02
02
05
03
05
02
03
01
02
0C
07
01
00
01
FF
03
02
05
01
00
06
04
05
09
00
FD
01
FC
FE
00
FD
FE
03
01
00
00
FE
FB
F9
FC
FD
FD
FF
FE
00
03
FE
02
00
00
F6
F6
F8
F8
FB
FB
FB
FC
00
F8
FB
FB
FF
04
04
06
02
05
01
FE
FD
FD
FE
01
FB
FB
01
04
02
04
01
FF
FE
FA
FD
FD
01
F6
FA
05
06
03
00
FF
02
01
01
01
FE
00
FE
FA
01
FF
03
04
01
02
FE
03
03
00
FC
03
FC
02
06
05
00
01
06
03
02
01
FF
FD
FD
05
FE
FE
00
01
FE
04
FE
FE
FB
00
FF
FC
FB
FF
01
01
03
00
FE
FF
FF
FF
00
FB
02
02
03
00
01
01
FF
FD
FD
FE
00
F9
FF
03
05
02
04
02
FE
04
FE
01
01
00
01
FE
01
07
02
01
06
02
03
FF
FF
03
02
00
FF
02
01
01
FD
04
02
01
00
00
06
03
01
02
01
FE
00
02
FE
FF
05
04
01
00
00
04
01
01
01
04
FE
04
02
FE
06
03
04
05
09
01
02
FB
FE
02
03
00
01
03
01
00
01
02
FF
02
06
FF
03
02
03
04
03
FF
03
02
00
03
02
06
FD
FE
05
00
04
01
FF
03
01
01
03
00
01
00
FF
FC
FF
FE
00
FE
FF
01
03
03
02
02
04
00
00
01
00
01
FE
FD
03
02
00
FF
FE
02
01
FD
01
FF
02
00
FE
00
FF
FF
FF
00
04
01
FE
FD
FE
FE
FF
02
00
FF
FE
FE
01
FF
01
FF
FD
02
00
FF
00
03
02
FD
FD
00
00
FD
00
03
FF
01
03
FE
FF
00
FE
01
00
FC
FF
03
FE
00
02
02
03
04
FF
00
01
05
01
FC
02
FD
02
00
02
00
03
02
04
02
02
FD
05
00
02
03
03
03
06
05
07
03
02
09
FA
FD
FF
03
04
05
04
05
08
02
07
04
0A
F6
F9
05
FC
04
FC
FF
FC
FF
FD
FD
FB
F6
F2
FF
01
07
08
02
03
FC
FC
F9
FA
F7
FB
FA
05
09
0B
0A
0B
06
FD
FD
F9
F9
F6
F8
05
07
0A
0C
0A
05
00
FE
FD
F8
FD
FB
F8
08
09
0D
0B
09
06
02
FF
FC
FB
FC
F8
FD
FE
06
0B
06
06
03
02
01
01
FD
01
00
FF
04
05
05
07
05
04
FF
FF
FE
00
04
04
01
FC
FD
01
FD
00
FF
FE
00
02
04
02
05
00
00
01
FE
FD
FD
00
FF
FE
01
01
02
00
03
FE
FF
FA
F8
FC
FE
FE
00
01
00
01
05
00
F7
FC
F5
F9
FC
FB
FC
FC
FD
F9
00
06
00
F5
F7
F9
FA
FA
FE
F9
F8
FB
FD
FE
02
FF
FD
FD
FA
FC
FF
FC
F9
FB
FE
00
02
02
FA
00
FF
FD
FC
F9
F9
F8
FC
FF
FF
FC
FE
FC
FC
FE
FC
FF
FE
FD
FC
01
02
01
FD
FF
09
FD
FA
F7
01
00
FF
FF
FE
00
00
FF
01
FE
00
03
FD
FB
F8
FD
02
02
01
FF
00
03
03
FD
FD
FB
FC
FA
FE
03
FE
03
01
00
05
04
FD
02
FE
00
FB
FA
FE
03
03
02
05
07
FB
00
FC
FE
FA
FD
FD
FD
FF
00
03
07
08
02
01
FE
01
FE
FF
FD
FF
00
FE
03
06
04
FD
FF
02
02
00
02
FF
00
FE
FC
FB
FF
FB
F1
03
06
06
05
01
02
FE
F9
F9
F9
FC
02
F6
FE
01
01
03
03
01
FD
F6
F8
F5
FB
F5
F3
02
06
00
FD
01
FD
FC
F5
F8
F9
FB
F6
FA
01
06
01
FF
FD
F8
EF
EC
F7
FD
FA
FE
FF
F7
FA
F6
F5
FF
FF
00
03
03
02
00
FD
04
FD
F7
F8
F9
F9
00
FE
00
03
05
02
00
01
06
FA
F6
F6
FA
FC
02
01
02
04
03
02
09
F8
F8
F4
FB
FB
01
02
03
04
03
05
06
02
FB
F6
FA
FD
FA
FD
FF
02
00
02
03
01
01
F5
F8
F7
FB
FD
FB
00
FE
00
01
FC
03
02
F8
F9
F5
F6
F9
FD
FB
FD
FE
00
03
00
01
FB
F4
F2
F5
F7
F6
FA
FC
FF
FD
FF
FF
00
F8
FA
F8
F7
F6
FA
FC
FE
FF
FF
FF
FC
F8
03
FC
FB
F9
FB
FD
FB
FE
FF
FF
00
FC
FC
03
02
FD
FB
F9
FA
00
FD
FB
FD
FF
02
FF
FE
00
FD
F9
F7
F8
FD
FD
00
FE
01
FC
FC
FE
FD
F9
F9
F3
F6
F8
FD
00
FC
01
FE
FA
02
04
02
04
02
03
0A
08
06
0C
07
09
FE
06
02
08
07
0A
08
0E
0E
0A
0B
FF
03
07
06
05
03
06
0F
0C
12
0A
04
07
01
F6
04
02
08
04
07
08
08
0B
0A
06
01
02
FF
F8
02
00
02
04
07
09
06
05
08
00
FB
F5
EF
05
04
01
04
04
05
05
00
FB
00
F8
F3
F2
FF
FF
03
04
02
02
FF
00
FC
F8
F9
EE
FC
FF
FE
00
00
FA
F4
F2
F5
F9
F9
FC
F9
01
FB
00
FE
FC
FD
F9
F6
F8
FC
01
00
F9
00
FF
FB
01
FC
FB
FA
F9
F8
00
03
02
09
07
FB
00
FC
FD
FB
FC
FB
FD
01
09
05
0B
0D
FF
FF
FD
FF
FF
FA
FE
01
04
0C
11
15
0B
FE
FB
FE
FD
FD
04
04
09
04
0A
0D
0E
0F
00
01
09
0B
0D
0E
0D
04
0A
06
07
FE
F9
FE
03
04
0A
0A
0B
0A
08
05
FF
06
FA
EF
00
06
0B
05
09
09
08
09
03
00
FD
03
FB
03
06
06
0A
08
09
06
06
03
FE
FB
F5
F9
09
04
04
05
0A
04
06
02
FD
FA
F8
FB
F3
FF
03
06
05
07
03
00
FF
FC
FB
F5
F8
FC
FB
FD
FF
01
00
00
01
FE
FD
FC
FC
00
02
FE
FE
FD
FA
FE
00
FE
03
03
05
03
08
07
FF
F9
FE
00
02
FD
01
02
06
05
07
07
0C
FF
FE
F9
FD
01
FF
01
04
03
06
07
09
10
FA
FC
FE
FB
01
01
03
03
01
0B
07
07
13
FD
F8
FE
FD
FF
FC
01
02
05
06
0A
09
0F
FD
FE
FC
01
01
FE
FF
03
FE
07
08
09
0D
F9
FF
FA
04
04
F9
05
00
F8
02
F7
FA
F9
FB
FE
FF
FF
F5
F5
F9
02
00
04
FF
05
F8
05
01
01
F9
F7
FB
F9
FA
07
FD
00
FC
00
FC
FA
FC
F6
F5
FF
FE
FA
00
00
07
08
01
F9
FD
FD
F7
F4
F8
ED
FC
FE
FE
FF
F9
F9
FB
08
00
09
02
FD
06
FC
FD
08
03
06
FC
06
03
08
FA
07
05
10
05
FE
F8
08
05
01
FA
00
07
0B
0F
13
05
FF
F9
F4
F5
00
FF
FA
08
0E
0E
0D
FF
01
03
04
FB
FC
02
F4
05
FF
03
0C
08
05
08
FC
FF
FD
05
FF
FA
07
04
05
0B
04
02
00
02
04
F8
04
FD
FF
FA
00
FB
FA
FC
FC
00
F5
04
FB
F6
FB
03
FE
FE
FF
FC
F8
FB
FB
00
F4
FC
F9
FD
FD
FD
FE
FF
00
01
00
FB
01
FD
FB
F9
FD
FD
03
00
00
01
03
03
FB
02
03
02
04
02
02
FB
02
FF
00
02
FF
01
00
00
03
05
08
04
01
FE
00
01
FE
02
01
00
07
04
05
0A
07
FE
00
FD
01
01
02
01
01
03
05
08
07
05
FE
FC
01
01
02
01
02
04
03
02
07
06
07
00
FE
FF
00
FD
02
06
04
03
05
01
01
02
FF
00
FD
00
01
02
00
05
03
00
FF
FC
FB
04
FC
FF
01
00
00
03
01
00
02
FD
FB
F8
00
FF
00
FB
FF
05
03
FF
01
FF
FA
F4
F6
01
01
00
04
03
FF
FF
02
01
FF
F8
F1
F5
02
07
03
01
02
00
01
FF
F9
F9
F3
EE
EF
02
02
01
03
FF
01
FD
F7
F9
F4
F5
F2
FE
FF
FD
FA
F9
F8
FD
FF
FE
FE
FE
00
FF
FD
00
FB
FC
00
F9
00
01
FB
FD
FC
FB
FB
FD
00
02
02
FE
FF
FE
FD
FA
F8
F8
FC
FA
FD
FF
01
FE
06
00
FB
FE
F8
F8
F7
F9
FB
FF
02
04
05
02
05
FF
FF
FC
F9
F9
FC
F9
01
03
FE
FC
01
FF
FD
FD
F5
F8
FD
FF
FC
FF
F4
FC
FC
FA
F9
FE
FE
FD
FE
03
00
FE
01
FC
02
FE
00
FA
FB
FE
FE
03
04
02
04
02
FB
FF
FC
FF
FD
FE
FF
02
FF
06
06
09
0A
FB
F9
F8
FD
FE
FC
FF
02
08
07
07
0B
06
F6
F0
F6
F9
F9
F8
FF
04
0A
0C
08
08
07
F6
F9
FD
F1
F2
FA
00
03
0E
0A
11
12
04
EE
F0
EF
F5
F2
F4
F6
08
0E
0D
09
0C
11
