FD
04
FE
FA
01
FF
FB
04
FF
FC
FD
FA
FA
FE
05
08
04
02
FE
FC
FF
FE
FF
03
FA
FC
FE
01
03
FF
04
01
FF
00
FE
FE
FE
F9
F9
FF
FB
04
06
04
02
03
FF
FD
F8
FD
FA
F8
01
FE
05
05
02
03
02
03
02
01
FF
FE
F8
FE
02
06
FE
05
00
04
03
02
02
FE
01
F9
08
07
02
01
05
04
05
03
FF
06
00
04
FE
01
04
04
03
02
04
02
06
01
03
02
02
FC
05
04
03
03
04
04
FF
02
05
02
04
02
06
06
09
03
05
02
01
01
03
07
02
06
04
02
02
01
00
04
01
01
03
04
06
04
00
05
03
06
FF
08
04
05
01
06
06
05
02
04
01
FD
FF
05
07
06
06
00
06
03
02
FF
FE
07
01
04
FE
FE
08
0A
08
04
07
06
04
04
04
00
03
00
02
0A
0B
06
04
FD
FF
F9
FB
00
02
08
FF
08
00
05
02
03
FF
FC
FE
F8
FD
FD
04
08
09
07
FF
FF
FD
FC
FD
F9
F9
FA
FF
06
FF
07
01
03
03
03
FF
FB
F9
F9
FC
01
FF
06
FF
02
03
03
FF
FE
FE
F7
FC
00
00
01
09
00
05
05
01
00
02
FE
FD
FF
FF
05
07
FF
03
04
04
04
03
FD
FF
FF
FF
FD
FE
FF
08
00
01
03
07
03
04
FD
FD
00
00
0B
02
0C
05
05
04
05
05
04
03
FD
FB
03
05
06
01
08
09
05
03
04
02
02
04
04
00
FC
05
03
03
08
08
01
06
01
03
FE
00
FC
01
00
FD
FD
FE
04
09
04
00
02
02
05
FB
04
08
01
05
02
05
FF
03
07
05
06
01
FF
FC
00
03
07
06
FF
04
02
08
06
07
08
00
04
00
00
06
02
01
05
01
04
04
04
02
FC
07
03
03
05
07
FE
01
02
01
02
05
FB
FD
06
00
05
03
07
FF
FF
00
FF
01
FE
FB
F0
F7
08
03
01
FF
00
00
FF
00
00
03
FF
00
02
07
04
04
00
00
FC
01
02
06
FE
FB
02
FE
04
00
FA
FB
FC
F8
FE
06
F9
01
F9
FF
01
00
01
FC
F8
F7
F5
FD
02
04
01
00
02
FF
FD
03
FE
FC
F9
F3
EF
FB
FF
00
FB
F7
01
01
FE
F9
F4
EF
ED
E8
EF
F7
FA
F5
01
FC
FE
03
F7
EF
EC
E5
E4
E4
ED
F7
F3
ED
F9
03
FE
FC
FA
F6
EE
E5
E6
E4
E6
F8
F7
F9
01
FB
F7
FC
FB
FA
02
FD
FF
FF
01
00
02
01
FB
F7
FA
FE
FE
FD
00
01
00
04
02
04
F6
FC
F8
FD
FA
01
01
04
03
05
06
05
FB
FF
FE
FC
F7
FC
00
03
02
05
06
02
02
02
F9
FB
FB
FB
FC
FE
01
01
01
03
FE
01
FD
FC
FB
F7
F9
FB
FB
02
02
01
03
04
01
FF
FB
F9
F8
FA
FA
FD
01
01
FE
FF
00
FF
05
FC
FB
FB
F9
F8
FE
FF
00
02
01
FE
02
FE
00
F9
F8
F8
F8
FE
FD
FD
FF
02
FE
00
04
F3
F9
F8
F5
F4
F7
FB
FA
FD
FE
FF
FF
00
F6
F3
F6
F2
F6
F6
F9
F9
F9
FB
FD
02
FF
F8
F4
EF
F2
F5
F5
FB
F9
FE
FD
FA
FF
01
FB
EE
F1
F1
EF
FC
FE
FE
FE
02
FA
FB
F7
01
FD
01
04
FB
F6
FE
FD
FB
02
03
FC
00
FE
FE
FC
F6
00
FD
F7
FF
F7
FE
FD
00
FC
09
F8
FE
02
FA
FC
FF
FE
00
00
FE
FC
FE
FE
FC
FD
F7
FE
00
01
FD
FF
01
FC
06
FD
FD
FF
01
FD
FD
01
FC
F7
FB
FE
FF
FC
07
FE
00
00
FB
00
FD
00
FD
FA
FB
02
05
02
FC
FF
F9
FE
F9
FF
FA
FC
FD
FE
00
06
05
03
FB
F5
FA
FD
FD
01
00
FE
00
06
FF
FE
FD
F7
FB
F8
FC
03
01
00
02
06
01
02
FE
FD
FD
F9
FE
FC
00
03
FD
05
02
05
04
FF
04
FD
FE
01
FD
03
FD
FD
07
02
03
03
0B
01
00
03
01
02
FE
00
02
01
08
02
09
09
06
03
04
02
FD
01
FF
FF
02
FE
02
FE
FB
FE
FA
FF
FF
05
02
04
06
09
0E
0D
0A
03
F7
FA
FD
02
04
06
03
08
0A
0B
0C
08
0A
FB
FF
FC
04
06
08
04
0B
03
09
11
0C
09
F7
FB
FB
FD
04
04
08
06
06
08
0D
05
03
FC
FA
FD
FD
04
04
05
03
06
09
08
06
FC
FE
FA
F7
FE
05
FF
FE
05
00
05
02
01
F5
F9
F6
FC
02
01
00
00
02
02
01
FD
02
F1
F5
F7
F6
F7
FB
FB
FE
02
02
FF
FF
FD
FD
FE
F9
F7
F5
FE
FC
FF
00
FE
FF
FE
00
FC
F8
F3
F2
F1
FA
F9
FB
FD
FD
03
02
FB
05
FA
F2
F4
F3
F5
F7
FA
F8
FC
FB
FE
FD
01
FF
F3
F1
F6
F2
F7
F8
FC
FD
00
00
02
08
FC
F8
F6
F4
F6
F5
F7
FB
01
04
04
04
04
01
01
03
FD
FD
FE
FD
FC
03
07
02
02
FE
FF
FF
F1
FE
00
00
01
FF
02
01
05
05
07
F7
FA
FC
FC
FE
03
04
04
06
03
07
03
01
02
03
06
00
02
03
FF
05
06
05
02
05
F9
00
04
01
FD
02
04
04
03
03
02
04
04
02
00
03
01
FF
FE
05
FE
00
FF
05
04
02
F9
00
FB
FD
01
02
FF
FF
FD
00
01
02
FD
F9
02
FB
FB
FF
00
FC
FB
01
02
FF
01
01
FA
FD
00
00
FC
04
FE
01
00
04
04
03
01
06
04
02
04
02
05
01
00
04
04
04
03
01
01
F8
FE
00
FF
00
03
01
06
03
05
06
01
04
02
FF
FE
FC
03
04
03
02
00
02
08
03
08
FD
01
05
FF
00
04
01
06
05
0B
04
0B
09
F8
F8
00
FD
F8
FE
FE
FA
FB
FC
FA
FB
FC
00
04
FD
F8
F8
FA
F6
FC
FF
FD
F9
FC
FC
F4
FE
FC
FB
FA
F9
FB
FC
FD
FD
FE
00
FE
02
FB
FF
FE
FC
FD
FC
FB
00
00
01
02
FF
FD
FE
FE
FE
FE
FC
FE
FD
04
04
00
FF
FC
00
00
FE
01
FC
02
04
FF
03
02
01
01
05
07
01
02
FE
01
00
01
05
02
02
04
03
05
FF
04
FD
FE
02
01
FF
03
07
05
00
01
07
FE
02
02
03
FF
00
04
01
00
04
03
04
01
FF
FF
06
01
04
03
04
02
04
FF
00
FE
01
FD
FF
03
03
07
03
02
03
05
01
00
FF
F9
FB
02
03
09
05
08
07
08
06
02
FE
FF
FC
F8
F8
06
0A
0C
0B
09
0B
04
FF
FD
00
F8
FF
04
01
FE
FF
02
08
09
0E
0B
0A
0C
0A
06
FC
00
FE
02
05
0F
0A
0D
0E
0B
0C
08
F9
F5
01
FF
02
08
0B
0D
0C
0D
09
02
07
FE
F8
FC
FB
FF
07
04
06
09
05
07
03
03
FD
F5
FB
FA
FF
03
06
05
04
01
FF
F8
FC
F8
F5
FF
FC
FF
02
05
03
04
FF
FE
F7
F9
FA
F6
FA
FA
FB
01
00
03
FF
FC
FF
FD
FA
F6
F3
FC
F4
FA
00
02
03
00
02
FD
FE
F9
F7
F6
F4
F0
F2
F8
FE
00
02
02
FF
FC
FF
E5
ED
F6
F0
F0
F4
F8
FF
FD
FF
FD
04
FE
F7
ED
ED
EB
F1
ED
F9
F9
FB
FE
00
03
FF
F2
EB
EB
ED
E9
EF
F4
F9
FA
FD
FC
FD
FE
F0
EC
E6
ED
F1
F2
F5
F7
FA
FC
03
05
01
F7
03
06
0E
0D
12
14
0C
10
0B
0E
05
00
FF
0D
08
05
0E
0F
08
0A
0A
02
02
FE
FE
05
07
04
0B
0C
0E
0D
0A
07
08
00
FC
F8
04
08
05
0A
08
08
0A
07
07
03
00
FF
FA
01
04
06
04
07
02
02
FF
02
00
FE
FF
FB
02
07
03
09
04
FE
FE
00
FF
FE
F9
F7
F5
02
02
03
03
07
04
02
FD
FE
F8
FA
F5
FA
05
01
05
02
07
02
01
FE
FD
FB
F7
FB
FA
FC
01
04
FE
01
FF
FF
FE
F9
F8
F7
F9
FE
03
02
FF
01
FD
FE
FF
FA
F6
F5
FB
02
F8
01
02
03
01
02
00
F9
F5
F6
F4
F6
FC
04
FF
03
03
01
FF
FB
F7
E9
F0
F1
FC
FD
FA
F7
04
01
F8
F4
EF
EA
E0
E1
E2
EC
F7
FB
08
15
14
12
10
0D
05
04
02
FD
FE
FF
02
05
0E
17
0E
08
0A
02
00
FD
00
FB
F9
F9
07
0D
0B
0A
07
09
04
01
01
FF
FC
FA
FE
04
0D
0A
08
05
04
02
02
FC
FE
FC
FD
00
0C
12
0A
07
02
03
FD
FF
FC
FC
FD
FC
FE
0E
0B
08
05
07
02
00
00
01
01
FC
01
FF
0E
0C
07
04
01
03
FE
FF
00
FF
00
FE
01
09
09
06
07
06
FD
FE
FE
01
FE
FF
00
01
0B
0F
08
07
00
FE
FF
FF
FE
FF
00
FD
FD
02
07
04
03
00
FF
FC
FF
00
01
01
FF
01
F9
05
00
03
FF
FC
00
FC
FC
FC
01
04
01
FD
02
07
00
FA
F6
FB
F8
FC
FC
FF
FC
FD
04
FA
F7
FE
F7
ED
EE
F4
F4
F5
00
FD
F7
FA
F7
F4
EE
FB
F7
F2
E9
EB
F4
FF
FD
FA
F5
FA
F1
F8
F5
F3
EC
F1
F2
F7
FF
FE
00
ED
F1
EF
ED
EE
EF
EA
E8
F3
F8
04
06
04
F7
F1
EF
EC
F5
EC
EE
EC
F5
02
0A
01
FA
F5
F6
F3
F1
F0
EA
E5
ED
F9
01
05
08
00
FC
F5
F5
F5
F3
F0
F2
F1
FB
04
01
05
08
FC
FC
FB
FB
F6
F4
F3
FC
FD
FC
01
FF
03
FF
FC
FD
F9
F6
F4
FE
FA
FC
02
F6
F6
FB
01
FE
FB
F8
F9
F9
FD
FB
F6
F5
F6
EE
F9
01
F9
FC
F6
F8
F9
FA
F0
F4
F5
F5
F8
F8
FD
FD
FC
FC
FD
FA
FF
F0
ED
E6
EE
EF
F9
06
00
00
01
01
FA
FB
F6
ED
E4
EB
F1
E2
0B
FC
04
06
04
01
FD
00
F4
F1
EC
F1
F8
F8
F8
FE
EF
F7
EA
EC
F2
F4
F3
F8
01
FB
F9
F5
F6
EA
F1
F4
F9
00
01
FB
FB
FB
F9
F7
F4
FB
F3
F6
F1
FF
FE
04
03
07
04
FE
F4
F1
ED
F7
F6
F5
FB
04
04
06
02
08
06
FB
F1
F2
F5
F6
F7
FE
01
02
FD
02
04
03
F8
F2
F0
F5
F1
F7
FB
FB
FB
FE
FF
FE
00
F5
F7
F5
F5
F5
FA
FC
FC
FC
F6
F9
FF
FB
FA
FB
F8
F9
F7
FF
FA
FE
FB
FA
F7
FD
F5
00
FE
FE
00
FF
00
03
03
03
FC
FA
F9
FF
00
FE
FC
00
00
FD
00
02
01
FC
F2
F7
F9
01
FD
03
01
00
02
00
02
FE
00
F7
F3
F8
01
FC
02
01
00
FD
00
00
FD
FD
F5
F8
F6
07
03
00
04
00
05
01
01
01
FC
FA
00
F3
F5
FD
FF
04
04
01
06
07
01
07
FE
FA
02
F7
FE
FD
03
FD
07
0A
07
03
FF
04
F9
FE
FA
FF
09
04
0E
07
07
02
FF
01
00
06
05
01
07
00
03
FE
FE
02
05
04
FA
02
F9
F6
F8
03
02
00
00
0E
16
0D
0C
FE
FE
FC
FA
02
FE
07
FE
03
00
04
09
FB
FF
FB
00
FB
F9
F7
02
FC
F9
09
05
F8
FB
00
FD
F8
06
04
FF
05
F4
F6
FF
E0
DE
EC
F2
F4
F6
FE
02
F3
F7
03
FA
F5
E3
E8
EA
E6
E4
F9
F9
F7
F5
02
04
01
FF
FC
F8
F8
FC
F0
F8
FE
F9
00
03
05
0B
06
F4
F6
F2
ED
E7
F8
FE
F8
FB
FF
00
FE
FF
F0
F3
EA
F1
F2
00
FD
FC
01
FC
03
04
F7
03
FF
F7
FD
F3
FA
F7
FF
01
01
04
04
06
05
07
03
08
03
01
FE
00
06
02
FE
00
02
FB
FE
FD
FC
F9
F8
FD
02
05
02
00
00
FA
FC
FA
FA
F9
F8
F4
FF
05
02
04
00
FC
FF
FB
FC
00
F9
F7
FE
FB
04
02
02
02
FE
FF
00
FE
FE
FE
FD
00
FE
03
05
03
01
FD
00
00
03
FE
FC
FF
FF
06
07
05
03
00
FE
01
03
02
02
03
01
05
09
05
02
04
02
01
02
01
06
03
02
03
04
02
02
00
03
06
05
02
03
04
02
04
02
05
05
03
00
05
01
04
08
03
00
03
03
05
03
06
06
06
02
04
03
01
00
04
06
06
05
06
08
FF
03
02
01
01
00
03
03
FE
03
02
FF
01
00
04
FF
03
FC
FD
FC
F7
FA
FE
FE
FC
00
07
03
FE
FC
FF
FC
F6
FB
F7
FB
03
04
FC
FC
FF
00
05
01
FF
FF
01
04
02
07
04
01
FC
03
00
FE
01
00
FF
01
04
03
09
05
04
EF
F9
F9
FD
01
FA
02
02
03
05
05
04
05
F3
F2
F7
FF
FB
FF
00
03
03
03
06
02
08
F4
F3
F4
F7
F8
FF
03
08
05
02
01
02
FF
F3
FC
F8
F6
FB
02
09
09
06
06
01
01
FF
ED
F2
F1
F4
F2
FE
0D
11
08
04
03
04
00
ED
EB
EA
F2
F5
02
0A
0B
0B
06
01
02
FB
E7
E9
EE
EA
F6
FA
FD
0F
0C
03
00
03
F7
EB
F5
F6
EF
F3
F5
F6
FD
03
01
FE
FB
F8
FE
F7
F6
F2
ED
F5
F5
FA
02
F9
01
09
FA
F4
FA
EF
F8
F0
FC
FA
F6
F5
F6
F7
F5
01
