F9
F8
FA
F7
F6
F8
FA
FD
F9
FA
F8
FB
F5
03
FE
04
FB
FD
FC
FE
FE
FF
00
FE
FE
FC
F9
05
00
FB
02
02
01
04
01
02
FE
F8
FD
05
FD
06
06
06
04
04
03
02
FD
01
FC
02
02
01
06
07
06
04
06
05
02
03
00
03
FF
0A
06
06
FE
04
01
04
02
02
02
00
02
01
06
03
FF
01
05
04
01
02
FC
03
FC
00
FF
02
03
00
01
00
02
01
02
FE
01
00
FE
FD
03
00
00
00
01
01
FC
FE
01
FE
FE
00
FE
01
02
FE
FE
FE
FF
FD
00
02
FF
02
FE
FC
00
F9
FA
FB
FE
FD
00
FF
FE
01
FD
FE
FF
01
FE
01
FC
00
FE
FE
FF
FD
FC
00
FC
00
F6
FA
01
FB
F8
F9
FC
FA
FB
FB
FB
00
FC
FB
FC
FB
FE
FD
FF
FA
00
01
FD
01
00
FD
FC
FD
FC
FE
03
00
00
01
01
04
01
01
F7
FE
F8
03
FB
FF
FF
02
00
02
07
01
FE
FA
02
FE
05
04
FD
FD
01
02
04
FF
FF
02
FE
FD
FC
02
FD
00
FC
01
FF
03
04
00
FF
F8
FC
03
00
FD
FC
FD
00
01
02
FE
FF
FC
FE
04
FF
00
FF
00
00
01
02
00
02
FD
FD
F7
05
00
FF
01
FF
00
01
FF
FF
03
01
FC
FC
03
04
FB
FB
FF
02
00
03
FD
01
FD
FF
04
FE
FF
01
FC
FD
01
00
02
03
03
03
01
FF
07
FC
01
FF
00
01
00
02
04
02
01
03
01
03
FE
F9
02
00
FE
02
01
02
04
FF
FB
01
03
FF
FE
00
FF
FF
05
01
04
FF
03
FE
03
02
03
01
04
07
00
01
0A
03
05
03
05
FB
02
01
06
FB
00
05
03
07
06
08
01
02
01
03
00
02
03
06
05
02
06
06
0C
09
FF
FE
FE
01
01
00
03
01
05
04
08
09
05
00
03
F9
FE
FD
00
FD
FF
00
07
0A
07
0C
06
FD
FE
FE
FE
FA
03
05
07
07
05
09
0B
03
FF
02
FF
FF
FF
01
01
05
04
00
04
FF
FA
F6
FC
F9
F9
FC
FF
FF
02
00
FD
00
FD
F0
F4
FA
F9
FA
FB
FE
FE
03
03
F8
FC
F6
ED
F0
FF
FF
FD
05
03
02
03
01
FC
06
FD
F5
ED
01
FF
03
03
05
0A
05
07
05
01
FF
F5
F8
FF
01
04
04
05
06
09
0D
04
06
05
FE
01
01
FC
08
06
0B
07
0A
05
07
07
FB
FF
FF
08
FC
FF
02
FF
FE
00
FA
FD
FB
FC
FA
00
00
05
FF
FD
FB
FA
F9
FA
FC
FC
FF
FE
01
FC
FC
FD
FE
FC
FC
FB
FE
F8
FF
00
01
FD
02
00
03
FD
FA
FC
FB
FC
FF
FF
FF
00
02
FF
03
01
FC
FE
FB
FC
FA
FA
FF
FF
FD
03
FF
03
FE
02
FE
FB
FE
FE
FC
FF
04
06
07
06
03
02
02
01
FE
00
00
FE
02
00
FF
05
05
03
04
02
00
FF
FE
02
01
FF
00
04
07
03
02
01
00
02
02
FF
00
FF
00
FE
02
05
03
03
02
02
00
02
04
FF
FF
FF
FF
00
00
F8
FF
01
00
03
FE
FE
FE
FB
F8
FF
FB
03
FF
06
02
03
01
FF
02
FE
FB
FC
FC
FF
FD
FC
03
02
01
FE
FD
FC
FB
F7
F8
FC
00
05
FA
F6
FB
FE
FA
F6
FD
FD
F9
02
FE
FE
00
02
FD
FB
FD
FF
F6
F3
FE
F8
FE
FC
00
FC
FB
F7
00
FE
FC
F7
FD
F6
F9
FF
FA
02
FD
F9
FA
FA
FF
FB
FF
FE
FD
FE
FE
FB
01
FE
F3
FD
F6
FC
FA
00
FA
FF
00
FD
FE
FD
05
05
FB
FE
00
03
FD
02
05
00
02
04
09
03
04
03
03
03
06
02
00
03
0B
07
0A
03
0A
03
01
01
01
04
01
07
06
07
07
0B
0B
09
04
00
FF
00
FF
04
02
04
08
07
0C
07
06
FC
FE
FB
00
01
04
02
FF
07
00
05
07
00
F9
FA
FC
00
FF
03
00
FF
04
FD
00
0A
05
FE
FF
FB
FD
FB
FF
F8
00
F8
FB
00
FD
00
FB
F8
FC
FA
00
FD
FA
FD
FD
FB
FA
02
FB
00
FE
02
01
06
01
04
05
09
0A
0E
0D
14
FF
FF
F8
01
06
05
05
08
07
08
0B
0A
11
02
02
FD
05
08
06
02
08
02
06
0D
0C
10
FA
FC
01
FF
01
02
07
03
04
03
09
10
10
04
FE
FF
FE
01
FF
04
05
04
08
0B
0A
11
FE
03
01
02
01
FD
FF
04
00
04
04
09
08
00
00
06
05
FE
FF
FF
00
FF
03
03
02
02
FD
00
01
FD
F9
F9
FD
FC
FD
01
04
02
03
04
03
06
FF
FD
FB
FB
F9
FF
FE
00
02
00
02
06
05
FC
FF
FC
02
00
FD
FC
FD
02
03
07
06
06
04
03
01
00
FE
FE
FB
FA
FD
FC
0C
03
03
09
04
02
02
01
01
FF
FD
06
FE
03
06
0A
06
05
04
FE
FF
FC
FD
FB
FB
04
F9
FD
F7
FE
F8
F7
F9
F2
F1
F9
F5
F8
FB
F7
F6
F7
FB
F8
F7
F4
F4
F2
F0
F6
F7
FD
F5
F4
F8
F4
F5
F8
F8
F8
F9
F4
F8
FD
FC
F4
F9
F9
FB
FB
FD
F8
FA
FA
F4
F9
FB
FD
F7
F7
F6
F4
FA
FF
FC
FA
FB
F4
F5
FB
08
FD
F7
F6
FC
FD
00
FC
FB
F6
FC
FD
FF
03
01
FC
FD
01
02
00
02
FE
FF
FD
FF
03
05
02
03
00
00
02
02
00
00
FF
FA
FF
FF
08
05
01
00
00
06
FD
01
01
01
FF
FD
FA
05
09
03
04
01
01
FF
FC
FF
00
FD
FF
FF
02
01
01
04
02
01
FF
01
04
FF
FD
01
FF
01
01
04
03
FE
03
02
02
FC
FC
01
FE
FF
04
04
00
07
03
FF
02
02
FE
FD
FC
FA
FC
FB
00
FF
FF
FB
FC
FE
FD
FB
FD
FB
FB
FA
FC
FD
FC
FF
FD
FA
FC
F8
FB
FC
FA
F9
FD
FF
FE
FE
03
FD
FA
FB
FB
FB
FC
FA
FD
FE
FF
05
05
01
FE
FC
FE
FC
FA
FB
FE
FD
00
01
03
01
02
03
01
FD
FB
F9
FE
00
FC
FD
FE
F9
FE
FB
FF
FE
00
00
FC
FC
FC
FD
FD
00
FE
FD
FE
FE
FE
FD
FF
FE
FD
FB
FE
FD
FF
FD
FC
FE
FC
FF
00
FD
FF
00
00
FC
FE
03
FD
F8
FF
00
00
00
02
FD
FC
FD
FB
FF
FD
F3
FB
FF
FF
FF
00
FE
FE
FD
FC
FC
00
FE
F8
F8
FD
FA
FB
FA
FA
F9
FD
FD
FF
00
F9
F8
FB
FC
F9
F7
FB
FC
FC
FE
01
FE
00
FF
00
F8
F9
FA
FA
F9
F8
FC
F9
FD
FF
FE
02
01
06
01
04
FB
03
03
01
06
00
06
06
02
09
02
04
03
00
04
09
04
06
09
09
09
06
0D
FF
FE
02
FF
07
08
07
08
08
07
05
06
FF
03
FD
01
03
05
01
01
05
06
09
0A
05
04
FA
FD
06
04
04
01
00
05
04
0A
07
04
FD
F5
FA
FE
00
FF
01
01
05
06
09
09
08
FC
F5
F6
FD
FA
00
FB
04
04
04
03
06
02
F4
F6
F4
F9
FF
00
01
03
04
03
03
03
01
FB
F6
FB
FD
FB
01
FE
02
05
04
01
00
04
FF
06
F8
F8
FD
00
FD
03
03
05
03
07
03
FE
07
FF
F8
03
01
03
02
04
02
00
06
01
FB
08
07
07
FF
06
01
02
06
01
FB
FE
FE
FF
0B
04
09
09
02
03
01
02
FE
FD
00
F6
FE
FE
FD
01
03
04
06
07
0F
0E
11
13
0D
05
04
05
09
0C
0A
06
0B
0F
09
0E
09
12
FB
02
07
0A
07
0B
0A
09
09
09
08
0D
04
04
07
02
08
07
0A
0B
0C
0B
0B
0E
13
09
04
00
05
06
04
06
09
09
0A
0C
0B
0F
0F
FF
04
01
06
01
FD
FF
08
09
0C
0E
0B
0B
FD
FF
03
FE
02
01
00
03
07
07
09
0C
01
FF
01
04
FF
FE
00
FF
00
02
03
05
02
01
FA
FE
03
FC
FB
F9
FC
FF
03
00
07
F9
FB
FB
02
FD
FD
F9
FB
FB
FC
FF
02
01
05
05
F7
F8
FE
FF
FF
FD
FD
00
02
FF
03
FC
FB
FE
FB
FC
FC
00
05
01
FF
05
06
FE
FF
01
FE
00
00
02
03
09
06
05
0B
0C
0A
09
04
00
0A
05
0B
10
0C
06
08
05
00
01
FE
02
07
07
11
10
0E
0D
07
05
03
03
FF
00
FF
03
0A
0D
0A
0B
0A
09
07
05
03
03
01
FF
FD
10
07
0C
08
07
06
05
05
04
03
02
01
09
09
0A
07
06
04
00
02
FF
01
03
00
FF
FF
07
06
05
07
03
03
00
02
04
FF
03
00
01
06
02
04
04
06
FF
02
01
02
03
00
01
FF
06
03
01
05
00
FE
00
01
FE
00
04
FE
FE
FE
01
03
FD
FF
FE
00
01
00
02
FF
FF
F7
FD
F7
FD
FE
01
FD
01
03
01
00
00
01
02
F8
FE
02
01
04
07
03
FF
00
03
04
02
F4
FD
05
04
04
05
07
04
04
03
03
00
00
F9
FF
FF
07
05
06
07
09
07
01
03
02
01
F8
F2
F6
FB
FC
FF
FD
FB
01
04
F8
F7
F2
03
FA
FE
FF
00
FD
01
0A
03
FB
F3
ED
EF
F3
FA
FC
FC
FF
05
01
02
FF
02
FB
F0
F6
F5
FB
FA
00
03
F9
05
06
05
00
F9
E6
EE
FE
FF
FA
F8
FF
FE
F8
01
04
FF
F7
EB
F5
00
02
FC
FD
FC
FB
FD
F8
FA
FF
F5
EF
F3
01
00
FD
FF
FB
F9
F8
FA
00
F9
F1
FA
FB
FF
FE
FF
FE
FB
F7
F3
F8
00
FC
FB
04
FD
00
FE
FC
FD
FD
FC
FB
FE
04
0B
07
0B
0E
01
FC
FF
00
03
03
03
06
0C
0A
09
06
09
04
FD
FD
01
05
08
08
08
09
0A
02
08
0E
09
FF
FE
02
07
07
06
0A
0A
0B
07
09
02
FE
FC
FC
02
FF
04
04
0A
0B
0F
0D
03
0C
F5
F4
F6
F2
F1
F7
F5
F2
FA
F4
F7
F4
FA
FD
01
F9
F2
F3
F9
F8
F8
FD
F8
EC
ED
F6
FE
F6
FC
FA
F1
F5
F7
F4
F5
F0
F1
EE
F0
F7
F9
F8
FD
F5
F3
F2
F3
F5
F4
F6
EB
F7
FD
FA
FE
00
FE
F7
F5
F5
F1
F1
F1
EF
F4
02
FF
02
08
08
01
00
FB
F4
F8
F3
F0
ED
FD
00
00
03
03
03
03
FD
00
FD
01
FA
FC
01
02
FE
01
FF
01
FD
01
03
05
01
04
FC
00
01
02
01
01
FF
FD
FE
FE
03
07
08
07
04
04
FB
FD
02
FE
01
FF
03
01
05
06
09
FD
FF
01
FD
02
00
00
01
00
09
04
06
0B
FA
FF
FF
FC
FD
FB
00
FE
03
03
0B
09
05
02
00
F8
00
FF
00
01
02
04
05
02
04
07
E5
ED
EC
F3
F5
EE
EE
F1
F2
F2
FA
F1
F4
EF
ED
ED
EE
ED
F8
EC
FB
FE
02
F5
FD
F4
E7
EB
EF
E9
EA
F1
E7
F9
F5
02
F2
FC
E7
E3
E9
E4
DD
E5
E1
EC
E3
F0
EE
F2
FC
EB
EA
E3
DF
D3
E3
E6
EF
E4
E8
E6
E4
EE
EB
EA
DF
E3
CF
D2
E0
CE
E2
E2
E1
E9
DF
F4
E1
E6
D6
D3
DA
DC
D1
CB
D4
DF
E2
EB
F1
E7
DC
DD
E1
DF
E0
DC
D5
D3
E3
E5
E8
F3
E4
E1
E2
E1
D3
D7
D6
D5
E2
E8
E7
EE
EB
E2
E4
DD
E2
D9
E0
DA
E3
F4
ED
F7
F7
EE
E5
E4
E9
E7
E8
E1
EE
ED
EB
EA
E9
E8
F0
EC
EF
F0
E4
E6
ED
E0
EE
EF
E9
E4
F1
F0
E8
F0
EF
F3
F0
EE
E3
F1
F6
E9
EA
EE
E9
00
FC
F7
F7
FB
02
FF
04
02
03
04
08
0C
02
FD
FD
FC
00
04
FE
02
00
01
03
01
02
FF
00
FF
FC
FC
FC
FF
FE
00
FE
00
FF
00
02
03
01
FE
FB
00
FF
01
04
FE
FE
FF
FE
02
02
00
02
00
01
FF
FF
FF
FE
FD
FC
FD
01
01
04
00
FF
FF
FF
FF
FE
FA
FF
FB
FE
01
FE
00
FF
FF
02
03
01
FF
FE
FE
FB
FE
01
FF
00
02
00
02
FF
01
00
FE
FE
FA
FC
04
FD
00
03
04
02
04
01
00
FE
FB
FC
F9
02
02
02
00
02
06
03
FE
FF
FD
FA
FA
FE
02
FF
03
04
05
00
00
04
02
FE
FD
FF
02
02
04
01
00
04
04
04
05
FE
00
FF
FD
03
00
03
02
03
03
05
06
03
03
03
03
02
00
0B
03
0E
0C
0D
0E
06
06
02
02
02
05
00
FC
0F
0A
0F
10
0B
08
07
06
05
02
01
01
05
00
08
09
0B
0B
08
07
06
04
02
02
03
FD
01
09
0A
0D
08
0B
0B
05
02
03
01
FC
07
08
0C
0F
13
0C
0F
0D
0A
05
07
01
04
04
05
0A
0C
0E
08
07
04
06
08
07
02
03
FB
FF
02
05
03
FF
00
00
05
09
02
04
03
F3
F9
FA
FC
F4
F9
F9
FE
03
05
02
08
02
F1
F6
F5
F4
F4
F2
F7
F6
FE
02
03
06
04
EF
F7
FC
F7
F9
F0
F0
F5
FB
01
03
01
03
F0
F7
00
FE
F8
FB
F9
F9
04
06
03
03
03
FE
00
FD
FD
01
FB
FE
F9
06
0A
08
04
FC
FF
FD
F9
F8
00
F9
F7
FD
07
07
06
02
08
