FE
FB
FA
FE
03
02
00
03
03
03
04
04
F5
00
01
01
FF
02
00
03
02
04
04
02
FE
03
FA
05
00
00
02
02
04
04
02
02
01
FF
04
FE
FF
07
04
07
04
04
03
00
FC
04
FF
03
01
03
01
03
05
04
05
03
02
01
01
00
05
01
00
05
FD
02
03
05
03
03
01
FD
01
02
02
03
01
00
06
05
03
03
FE
03
FC
02
FD
00
02
FD
02
03
02
00
03
FE
01
FF
FD
FF
FD
00
02
FF
05
04
FD
FF
01
01
01
00
02
FF
FE
FF
FF
01
FF
00
01
05
02
03
03
FE
FC
FD
FA
FD
FE
FB
FD
FF
FF
02
FF
00
02
04
FC
00
FC
FD
FC
FD
FF
FD
FD
01
FE
02
FA
FF
03
FB
FC
FA
FE
FD
00
FD
FE
05
04
FB
FF
01
FD
FE
F5
FC
FD
FF
FB
FB
FC
FB
FF
FC
00
FE
01
FD
FC
FD
01
02
04
FE
04
01
05
05
FE
FF
01
00
00
FE
05
02
05
06
04
FD
02
04
00
00
FE
01
05
02
05
04
03
F8
01
01
00
01
FF
03
FF
03
08
01
06
03
F9
03
01
01
00
03
01
04
02
02
03
02
00
00
01
02
00
03
04
01
01
00
06
04
03
03
07
04
FF
FE
01
03
05
FF
02
06
04
01
06
FF
FF
FD
FD
FF
05
04
05
02
09
06
03
06
FE
02
00
FD
FD
01
02
02
03
06
04
07
FD
03
FE
FE
02
FE
00
01
03
03
04
09
04
FE
04
FD
FA
00
FB
FE
03
02
04
02
04
01
04
00
FA
FB
FD
FF
FF
02
00
03
01
FF
01
FF
FB
F9
FB
FC
FC
FA
F6
F4
F5
EF
F5
F6
F8
FD
FE
F9
F4
F9
F7
F7
F7
EE
EE
FE
F4
FF
FF
FF
FD
F5
FB
F8
F3
F3
F1
F9
F7
F8
00
FF
FE
FE
FC
FA
F7
FA
F6
F9
FC
FF
01
FB
FD
00
F7
F7
F4
F6
F7
FB
F8
FD
04
0A
03
FB
F8
F9
F1
F4
FC
F9
FC
FB
FC
02
06
00
01
FF
FB
F7
F8
FA
04
01
FC
FB
06
FF
00
FC
F7
F5
F5
F9
FB
01
04
FB
FC
FF
FC
04
FE
F3
F8
F2
FB
FE
01
FE
FD
F7
FF
0D
FF
FF
F8
F9
00
FE
02
01
FF
00
00
03
02
FD
FE
FD
01
FF
02
08
03
05
09
03
04
00
05
00
02
04
06
03
05
04
0A
07
01
05
0C
01
04
FD
06
07
0A
09
0A
05
05
0B
05
08
FF
FA
03
03
03
02
02
06
00
02
00
02
03
FD
FD
02
FE
FE
FF
02
FD
FD
01
FF
00
01
02
FB
FF
00
02
01
01
00
01
FC
FF
04
02
FD
FE
FD
00
00
00
01
02
FE
01
02
01
FF
FE
F9
FE
FE
FF
02
01
02
00
FE
01
FF
00
FB
FC
FE
FD
01
02
00
03
04
00
02
04
FF
FE
FC
FF
FE
FF
00
FE
01
02
FF
00
FE
FE
FE
FB
FE
01
00
FD
01
FE
01
01
00
FA
FD
FD
02
02
FF
FF
FF
03
01
FE
FF
FD
F8
FD
F9
F9
02
02
01
00
FF
02
FF
FC
FB
F8
F3
FB
FE
FE
03
07
05
01
01
00
FB
F9
F8
F6
FB
FC
03
02
06
04
05
05
FF
FD
FA
F4
FB
FB
FD
03
07
05
04
04
01
FF
FB
FA
FC
FE
00
F9
F8
05
FE
01
02
FF
05
02
01
02
FB
FA
04
06
FF
00
05
FF
01
04
03
03
03
01
FD
00
FC
FC
06
01
02
04
02
04
04
03
06
02
FC
F8
FF
FF
00
07
06
02
04
01
FF
01
FF
FA
00
FA
00
01
05
01
04
04
00
00
00
FC
F7
F7
FE
FF
03
01
06
09
00
FF
03
FF
FD
FD
F7
00
03
01
03
02
05
09
01
FF
FF
FE
FD
FD
00
05
04
03
06
04
03
00
01
FE
FF
FC
03
FF
FE
FE
00
01
05
06
FF
02
F9
FE
01
FF
F9
FB
FA
01
03
02
04
03
FB
FD
03
F9
FA
FE
FA
FA
03
02
01
04
FD
FF
FF
FE
06
FB
FB
FB
FF
00
FF
00
FE
FB
FC
FE
FB
FA
FF
FD
F8
02
01
FF
FF
FE
00
03
08
FC
FF
FD
06
00
FC
FD
F8
FA
FE
FB
F4
EE
F2
05
00
01
01
FF
F9
F7
FC
FC
F7
F2
EB
F1
03
02
01
00
FF
FD
F9
FC
F6
F6
F8
F1
EC
02
FD
FE
FC
FE
FC
FE
FC
FD
F8
F7
F8
F5
FE
FD
FC
FE
FE
FE
01
01
01
02
FC
F7
F9
FD
FE
F9
00
02
FD
00
06
03
00
FF
FD
F4
F8
FA
FC
00
01
00
02
06
07
03
02
FC
00
F6
F8
F6
FE
FC
FF
03
07
07
01
06
FC
FE
FC
FB
FC
FD
02
00
02
02
03
FF
01
FD
FE
FD
03
02
FF
03
01
03
01
FF
01
00
F9
02
06
06
06
06
02
02
02
FF
FC
FC
FB
FD
F8
0C
06
0F
09
03
02
01
02
FE
FB
FB
FD
FE
0D
0E
11
0F
0B
04
01
02
F8
FB
F6
F5
F9
FA
08
FF
02
06
06
03
04
03
01
00
FE
FA
05
06
08
08
0A
08
05
01
05
01
00
FB
F5
04
05
07
07
07
04
04
06
06
03
03
FE
FF
01
00
04
06
03
02
FD
04
04
01
00
02
F9
00
01
05
00
03
05
01
02
00
02
01
02
03
FB
FE
FF
06
03
04
00
02
FE
03
03
01
FE
01
01
01
04
04
03
03
01
03
04
00
FE
FB
FF
00
FF
00
05
00
00
00
02
FA
FF
FE
FE
FF
FE
FE
FD
05
FD
00
01
00
FF
FD
FC
FD
00
02
02
02
01
00
FE
FE
00
FE
FC
FB
FB
FD
FE
00
03
FF
FE
FE
01
FE
FE
FF
01
01
01
03
FD
FE
FF
00
FF
FB
FC
FC
01
FE
F9
FE
03
07
05
FF
04
01
FF
FD
FF
F8
FB
F7
00
FE
FF
00
00
04
04
01
02
02
04
FF
08
FD
FE
00
00
02
04
FF
06
04
01
00
04
02
FA
FA
05
FF
05
02
03
05
05
04
05
03
00
03
05
02
03
01
03
02
02
03
04
05
04
03
02
01
07
07
03
01
FF
FD
01
00
FF
00
01
FC
04
03
06
01
02
01
FC
FE
FE
FE
01
02
FE
03
04
05
01
FF
FE
FD
FA
FB
FF
00
01
F8
FF
04
01
04
FE
F9
FA
FC
FC
F9
FE
FE
F5
01
05
03
00
FE
FF
FA
F7
FB
F9
F9
FA
FB
01
05
00
00
FF
FC
FB
FA
F8
F8
F8
FB
FF
FE
FD
FA
FD
FC
FB
FA
FC
FB
FB
FE
FA
FD
00
FA
FD
F7
F9
FB
FC
FD
FF
FB
FE
00
F9
F9
F5
F8
F5
F7
F8
FA
F9
FD
01
01
08
F9
FE
FE
FD
04
FA
04
FE
02
FE
04
02
03
FA
FB
F8
03
FE
00
01
FB
FF
00
FD
01
FD
F3
F5
F7
FD
FC
01
01
FB
FB
FA
F8
F7
F8
F6
F7
F1
FE
F9
FE
FA
FA
F9
F8
FA
FC
F9
EF
EF
F3
FA
FA
FC
FB
FB
FC
FB
FD
FA
FD
EF
F4
F7
FC
F9
F6
FC
FE
FD
FD
FD
FE
FE
E6
F7
F3
F9
F8
F8
F9
FE
FC
FD
FE
FD
FE
EF
FA
F8
FA
FB
F9
FC
01
FF
FF
FD
01
00
F5
F7
F9
FA
F9
FB
FC
FF
01
01
01
FC
05
F6
FC
F7
FC
FD
02
00
04
02
03
FF
09
00
FE
FD
04
04
08
04
04
02
03
00
05
05
04
05
02
09
0A
07
07
03
03
04
04
02
03
FA
06
06
07
07
08
07
02
02
03
01
01
00
F7
01
FD
F4
FD
F4
F1
F5
F1
F1
F1
F1
F6
F3
00
00
01
FD
F9
F7
F2
F6
F5
F5
F3
F6
01
FD
F9
FB
FF
FD
FB
FB
FD
F9
F6
F4
F6
F9
01
01
FF
FC
FB
FD
FF
FE
FB
F8
F8
F9
05
02
00
04
01
FF
FE
FE
F9
FA
F9
F7
FD
F6
FD
05
FE
02
00
F6
FA
FD
FB
FC
F8
FB
FF
00
FD
FC
FC
FE
FE
FB
FD
FD
FA
FE
FE
08
00
FE
01
FE
FF
FA
FB
FA
FA
FB
FD
01
09
FD
01
00
FC
FA
F7
FB
FA
FD
FF
01
FD
FC
FF
FF
FE
FF
F9
FE
FD
FE
FE
00
07
0A
02
01
FE
FD
FB
FF
00
00
01
04
01
04
0D
FE
00
FE
FE
FB
03
05
07
02
08
07
00
05
04
FC
FB
FC
03
05
0D
0A
0C
11
0D
0C
08
0D
F1
F7
F7
F2
F6
F5
F4
FD
FC
FB
FB
FB
FD
F4
03
00
FD
FF
01
FF
FF
00
05
01
00
02
FE
05
01
02
FF
01
02
01
03
03
01
01
02
03
04
01
05
01
02
01
03
03
02
03
03
02
0B
07
02
02
00
00
FE
01
FE
00
02
01
FF
10
06
04
01
05
00
03
01
02
01
FE
02
03
07
06
02
FF
01
03
FE
01
00
02
01
FF
04
04
05
02
00
05
FD
FF
01
02
FD
01
04
00
00
06
04
02
FD
FE
00
02
01
01
03
FE
03
02
00
FC
FF
FF
03
02
04
04
04
05
04
04
F9
FE
00
01
05
05
08
04
01
03
03
03
04
FD
FD
00
02
02
05
07
04
05
04
04
02
00
FC
00
FB
08
06
07
09
0E
0B
04
0A
07
05
F5
E6
E8
ED
EA
EB
E8
E1
E7
EE
EC
F4
01
F1
E4
EF
DD
E4
EB
EF
F8
F6
FC
04
01
00
F0
ED
EF
E6
E4
EE
F2
F5
FA
FF
FA
08
00
F7
F8
F5
F2
F5
F2
FA
FB
FA
FA
F9
00
FB
FD
FB
F7
F4
F6
FC
FA
FC
01
00
02
00
09
02
FE
F6
F7
FB
01
01
01
01
08
01
0C
FD
FE
F7
F8
F9
F8
FF
FD
03
07
05
0C
0C
0B
00
FA
FB
FB
00
FE
01
02
09
08
06
03
FE
00
FE
FC
FB
00
00
00
03
04
0D
0D
04
01
03
00
02
01
01
05
04
03
0A
0C
0A
07
07
02
03
02
05
05
08
08
07
0B
08
06
06
08
01
05
03
04
05
06
06
09
05
06
04
0B
03
F6
FB
FA
FF
FE
00
FF
02
04
07
07
0B
13
F2
F3
F8
F7
FD
F3
F6
F5
FC
FD
F2
F3
F9
FA
F6
F7
FD
FD
FE
FD
02
05
04
05
FF
FF
F2
F7
F2
FA
FA
FC
FC
FF
00
01
02
FD
FE
F9
F7
F8
FA
FC
FD
FC
FE
FF
FF
FD
FE
FB
FB
F7
F7
FA
FF
FF
01
FF
00
00
FD
FD
00
FB
FA
FE
00
02
00
02
01
FD
06
02
FE
00
FC
FE
FE
FF
01
01
05
00
FD
FE
FF
F8
FA
FE
FF
FC
FE
FE
01
01
01
FB
00
FA
FC
F5
FE
FE
01
01
00
FE
03
FF
FB
FE
FC
01
F9
02
03
FE
FF
04
00
04
00
FE
FE
FB
FF
01
03
02
04
01
02
04
03
03
FE
06
03
03
06
03
FE
01
FF
02
FF
03
02
04
05
06
05
09
FF
FE
FC
00
01
02
02
03
02
04
06
03
01
FB
FB
FC
F6
F5
FB
FF
FE
F9
FE
F4
F4
FC
01
F4
F5
FB
FA
F0
F1
EC
F0
F1
F5
F7
F2
00
01
F9
FA
FC
EB
F0
EB
E5
F1
F3
F0
02
F3
02
FF
FD
00
F5
F1
EF
EE
F4
FB
FB
FD
F7
FA
FD
FB
F1
DE
D8
E0
F4
FB
F9
FA
00
FA
05
FF
02
E8
E2
D2
D6
E7
FD
EE
F4
F2
F6
FC
FE
FF
EC
E6
E0
DF
EF
FB
FA
FC
F9
F3
03
FE
F7
EA
E6
E0
DF
ED
F1
F6
00
FB
02
01
F3
02
F7
E9
E3
E3
F4
F7
F6
F2
FB
F7
FC
F1
F3
F4
E4
E1
E6
EA
F8
F0
F4
F4
FC
F8
EF
E9
F0
EA
E5
F1
FA
02
FF
FF
FD
F2
F1
F2
FD
FA
F9
EE
EA
F3
FC
FE
04
FD
F7
F3
F8
00
F9
F3
F8
F9
FF
F6
F8
FA
F6
F8
FA
FC
FB
FE
FF
FD
FE
FE
FE
F6
00
F7
04
04
03
03
08
07
03
05
00
04
06
02
FB
FC
00
FF
02
05
04
07
02
01
04
08
00
04
05
01
03
01
03
05
03
02
06
04
02
06
FE
03
02
00
03
04
04
01
FE
FF
FE
FF
01
01
01
02
05
03
03
02
00
FF
FD
FC
02
00
06
04
02
02
02
01
03
02
FF
FE
FF
FE
00
05
03
01
03
03
01
01
FF
01
00
FF
01
02
02
06
FD
01
03
03
02
03
03
01
02
FC
02
FF
00
FD
01
FD
02
07
02
FF
02
01
01
04
07
02
00
FF
02
05
FF
FF
04
02
02
FC
02
FD
FE
FF
FD
00
03
00
02
04
FE
04
01
00
FD
04
00
02
04
02
02
03
00
01
05
06
05
06
00
F9
FC
FF
FC
02
FA
FE
FC
01
FD
02
FF
F7
F8
FC
FF
F8
FD
FF
FD
FE
01
FD
FB
FF
FB
FE
FD
F9
F6
FC
FB
FD
FD
FD
FF
FB
01
F9
F6
FC
FE
F9
F7
FF
FC
FE
FC
FD
FB
FD
FA
F9
F7
FE
FD
FC
02
01
FE
FF
FF
FC
00
FA
F1
F6
FB
FB
FE
02
00
FE
00
00
FF
02
F3
F7
F8
FA
FA
FC
FA
FC
FA
01
FC
FD
FD
F5
FA
FD
FF
F9
FB
FC
F7
FA
FC
FC
FD
02
F6
FC
01
05
00
FE
FA
F5
F2
FA
FB
03
FE
FD
00
00
FF
02
FC
FC
F6
F8
FA
F9
FF
03
04
F5
05
04
02
FC
FD
FA
FE
00
00
00
07
FE
02
FC
FE
FF
01
FA
FD
FE
03
06
05
F9
0A
F9
02
F7
00
F8
FB
FB
07
04
03
00
08
